00002e40
ffffea99
00000c4b
000015bd
000045f7
000009c6
000017f6
000023d3
0000105e
00000e2e
000024d9
ffffd9ba
ffffe1b3
ffffff01
000012e9
00000302
00001d74
00000d69
0000348b
fffffefa
00001a69
00002023
00000d97
ffffff6f
0000106c
ffffd887
00001309
000011f9
fffffd0b
00004a8b
00002e11
00002ff7
0000363a
fffff889
000001ef
00001ac7
00001ca1
00000b5f
0000271c
ffffcc69
fffffe7a
ffffe760
ffffeadd
00000f8a
000022d9
00002f56
ffffe2e0
000013e9
00002d4e
ffffe361
000011a5
000010e5
00000d10
fffffc43
00000978
000029ad
ffffd4ab
fffff580
00000d5e
00001640
fffffb8b
000032b6
0000041c
fffffcc1
ffffef28
ffffe4c5
ffffec8a
000005bc
0000063f
00001651
fffffbf1
fffffe57
0000175a
00000e2f
fffffd0a
ffffdcc8
fffff07b
0000083b
fffff339
0000093a
fffffb60
ffffed16
00002b55
00001482
fffff5b9
fffffc54
0000039b
fffff600
000008b1
ffffe79c
fffffbec
00001b42
00002227
0000286f
00000171
000009c9
fffff966
ffffee4c
ffffe67b
00002144
ffffd600
00003199
fffffbe6
000032be
fffffa71
ffffee91
fffff32c
fffff96a
ffffe9ce
fffffd1f
0000132a
00001aec
000026ff
0000410a
fffff1ce
000025a0
fffff6b5
ffffdc4c
0000034e
0000411a
000012a7
ffffd991
00002710
00001807
00000c7b
00001218
fffffad5
fffff4c9
