00000583
fffff794
0000089f
0000044c
fffffdff
0000007d
00000031
fffff840
fffffd91
fffff7d3
00000100
00000151
000001ea
fffff9ac
fffffa9d
00000320
fffffd7e
00000507
000004a7
fffffce5
00000310
fffff99a
00000820
000004bc
00000645
0000086f
fffff803
fffffc1b
fffff925
ffffff93
fffffec2
fffffd09
fffffb67
fffff85b
fffff855
ffffec0e
fffff318
fffff07d
fffffb84
00001124
00001ad9
00001d37
00002206
ffffd203
ffffeb38
ffffe99c
fffffd48
fffff4c4
ffffed2d
fffff47f
fffff0f5
fffffb32
00000455
fffffe20
000008aa
ffffff55
fffffdef
00000784
fffffe77
0000445f
00004196
ffffff80
ffffe8dc
fffff433
fffff100
ffffedb8
ffffe64e
ffffd462
ffffa152
ffffbf02
ffffcfb8
fffff714
00002afe
00000180
ffffc186
ffffcfd0
ffffa6f7
ffffc432
ffffead6
ffffdb62
ffffed85
00000353
fffffe78
000005f2
fffffa70
fffffd34
ffffff21
00003453
00003003
fffff54e
fffff2bd
ffffdeb0
ffffdcfb
ffffc698
ffffcee2
ffffb8d9
ffffd1cd
000011ec
0000071a
ffffd047
fffff9ee
0000155b
000017c1
fffff791
0000271a
00005880
0000322c
0000284d
000001f9
0000176b
fffff65d
ffffff40
00000613
00000459
fffff402
0000303c
fffff7cd
ffffe047
ffffc77e
ffffb788
ffffad20
ffffb419
ffff7127
ffffe558
00002ad0
00005820
00003f84
00000dbf
fffff44e
000000e6
0000148c
00003477
00003538
00001d72
00004aee
0000551b
0000550e
00003619
00000db9
fffff6be
00000511
fffffa04
fffff619
000024d6
00001d52
00001973
ffffffe3
ffffcbb9
0000087c
fffffc3c
ffffe4e2
ffffe697
00001b4d
000024f1
00000f55
ffffe08c
ffffd080
ffffc6f8
ffffc407
ffffce53
ffffebea
00003f2c
00005485
000015a6
0000513c
000036cf
ffffeb6b
ffffe2a7
fffffcbe
00000683
00002f6f
00002f86
0000390c
00004819
fffff0d9
ffffda93
000012d3
ffffd36d
ffffe194
00003103
00004c72
00003229
00000dfe
ffffd7da
ffffd088
ffffe03d
ffffd79b
ffffd661
ffffec23
0000292d
00003f8a
fffff9d8
ffffdf2d
ffffc8be
ffffa862
ffffdffa
0000057a
000032ae
00004cd8
000076ca
00001aa6
ffffeff1
fffff21e
00001a03
0000285d
00001040
000017ea
000027c4
0000282a
00001c86
fffffd29
ffffde18
ffffe63a
ffffea09
00001185
ffffe9f7
ffffcc07
fffff0cf
fffff912
000016c5
ffffdef5
ffffc21e
ffffa576
ffffcc44
000060ca
000032d2
00009f81
00002b05
ffffda64
ffffffc1
ffffd46a
fffff985
00001dc9
000007e2
000013d6
00001a08
000023ca
000016b7
00001545
00000600
ffffee41
000002cb
0000238f
000000d2
00000a0a
00000885
00001228
0000264e
00000290
ffffd510
ffffd976
ffffe1a6
00001319
000017e6
ffffe994
fffff13d
000003c7
0000029b
fffff19f
000007d0
ffffe288
0000016f
000018b9
00002d63
00001f69
00002180
00002da8
000001d3
ffffea8c
00001080
00003a0d
0000203b
0000164e
0000237b
00002ab4
000053d8
0000512f
00001c45
ffffa96c
ffffde53
00001152
00002109
00002180
fffff2f5
ffffff96
fffff3c4
ffffddb4
fffff80e
fffff814
000001e6
00001711
00003566
000021a9
00001ce7
fffffb3c
ffffe7cf
ffffedb2
00002809
000033f7
000031d5
000018ec
00001ceb
00004000
00003324
000021d4
ffffdb8e
ffffc263
000005be
fffffd54
00004f1d
ffffdf36
00000657
ffffb8cf
fffff8eb
fffff38e
fffff72c
ffffd40c
000003c4
000011da
00003906
000004d7
ffffc9ca
ffff8977
ffff9f6b
ffffcdab
00002ba1
00002e34
00000087
ffffe866
ffffe041
ffffed08
0000184a
00001fd6
ffff9708
fffff584
00000120
000009d6
00000a2d
ffffd4c0
ffffe1ac
ffff9844
ffffe5af
ffffec13
fffffb8c
fffff468
0000091a
000029e7
00004ed5
00001350
ffffb0d7
ffff6d38
ffffa73b
00000270
00001aff
0000217d
ffffdfd9
ffffccc4
ffffd70d
00001596
000007da
0000396b
ffffb016
fffffad0
00000b03
fffffe42
00001b75
00001f99
fffff037
ffffb501
ffffbe9c
000001f3
0000088f
00003809
000050f7
00004ef4
00005a05
ffffddea
ffff878d
ffff82b5
ffffb76e
fffff814
00002860
fffff6c4
ffffbf47
ffffe023
fffff540
00001683
ffffeeea
000046a8
ffffe16f
000004ac
000017b2
0000303e
00000516
00003fcd
fffffe2d
ffffacc0
00001e0f
00000ba1
00002caf
00003e38
00006ca6
000080e7
0000180e
ffff9a2b
ffff6cb2
ffffaa34
ffffcdfe
fffff7e1
000009f1
ffffeaed
ffffe255
fffff280
fffffd6a
fffff3a1
00000d7f
00005149
fffff841
00001dc4
0000057b
00003405
ffffed4a
00001464
00000444
ffffcf6f
0000316d
00002812
000057f3
00004161
00005269
00004ea2
ffffdff8
ffff7c92
ffff94ae
ffffbf90
ffffe98c
fffff5a4
0000046f
fffff585
ffffff46
fffffdfe
00001ffe
fffff79b
00000e3d
00003546
fffffa55
00000e68
000005ca
00002e88
ffffe3be
ffffef90
fffff305
0000078e
00001e38
0000390e
00007109
0000596a
0000258a
fffff803
ffff930b
ffff8c5b
ffffc2b2
00000478
fffffcc4
fffffef5
000006c9
ffffee90
000007ef
000011ce
00001f42
ffffd5ee
ffffe683
fffffb90
ffffc3d1
0000109d
fffffc90
fffffc99
ffffe9c7
000037a6
000008a1
00002cde
000025b7
00004621
00003fdd
000036ae
00000ea0
ffffc842
ffff9455
ffffb0c0
ffffd4be
00000995
ffffe677
fffff3f2
ffffeed7
00000dec
00000cbf
00001b0e
00000045
fffff51e
fffff57b
00000419
00001cc9
000007d6
fffff4b3
00004afc
fffffb7d
00003727
ffffd42b
000012ad
00002671
00002159
00000e88
00002b3b
fffff215
ffffb03c
ffff9a5d
ffffbee0
ffffcd08
fffffa25
ffffefd2
fffff986
ffffec1b
0000143c
fffff4be
fffff6ec
00000004
000001ce
fffff4f7
ffffff07
000030fd
fffffc83
fffffb6a
fffffe7e
0000424e
00003329
ffffdee6
00002abc
00001d7a
00003b66
00001783
ffffff97
ffffde1e
ffff9db1
ffffa1a4
ffffd018
ffffd404
fffff1fc
ffffd5c8
ffffcac5
000000d3
ffffe521
ffffedb9
fffff8d5
ffffe6fe
ffffff08
ffff9e6c
ffffe4cb
000045c8
00002035
00000ee5
00000310
0000012d
fffff34d
fffffe02
000028b3
00000bda
000036b7
00003281
00000c19
ffffd595
ffffd9fa
ffffe9c8
fffffffe
ffffef68
ffffefbe
ffffd364
ffffe1de
ffffe7a0
ffffc8d4
00000906
ffffeaa4
ffffd36c
ffffda75
ffffb1b0
ffffbc4b
ffffcade
00000a1a
fffff2cb
000007fe
0000070c
fffff924
000020a5
fffffcbe
00000a40
00000eb4
000000dd
fffff4a2
fffff1a3
00002b76
00004802
000010d3
fffffe07
ffffe014
ffffe384
0000070e
ffffc867
ffffeab7
00000232
fffffba7
00000faa
000021c3
ffffd6b3
fffff2e6
0000142a
000044c0
fffffeae
fffffeb8
000004ab
fffff78d
fffff76e
ffffdd46
00000cdf
00001910
0000207c
00002dcf
00003647
00002a10
000026ce
ffffffc4
00001829
ffffec40
00000444
fffffd66
ffffe5e7
fffffe3a
00001ad0
00000027
00001f3d
ffffec76
ffffd634
ffffe012
00003b95
00004e05
00000e80
000005b9
fffffd13
ffffe276
ffffed07
ffffcb65
fffffc8d
00004abf
00002b60
00001390
000042e7
000036d0
00000326
00000d5e
00000ee7
0000053b
fffff293
fffffb31
00000016
000000f4
0000191c
fffff5f5
fffffefe
ffffcbe3
00000ce9
fffff4c1
0000226b
000018bc
fffffc93
0000082c
0000008c
00001d3d
00001425
00002f90
00003b98
00002d80
fffff95a
000010cb
0000287e
00000b0f
fffffcb9
0000073b
00001912
ffffe9a8
ffffddcb
ffffeebe
000025df
fffff557
ffffecd6
ffffcc37
00000528
ffffd103
ffffed4a
00003588
0000205b
fffffce5
fffffe0c
00000813
fffffeb9
ffffbf47
000007ea
00000411
ffffe597
ffffe1bd
ffffed19
0000213a
00001498
ffffddd4
ffffef6b
00001846
00001147
fffff31a
fffff836
00001dc8
00000384
ffffe361
ffffd259
ffffebff
00001cf9
ffffdaa0
ffffdc64
00001e65
000000f8
fffff928
fffff836
00000615
fffffa3b
00000748
fffff80e
ffffaa2c
ffffb081
ffffcfd7
ffffd304
ffffc7d3
ffffe3d1
ffffd09d
ffffe783
00001f7e
000015c2
ffffdef5
00000724
000017af
fffff751
000009d4
00005eb5
0000257f
00002808
00004682
fffffdd2
fffff59d
00002b9e
ffffff2a
00000671
ffffff22
000006a4
000008c4
fffff8eb
00002c65
00003537
00001106
fffffb49
00000b71
000000ae
fffff35c
ffffebf9
ffffffa5
0000362e
000024c4
ffffde41
ffffd5e7
00003ebd
00001511
fffff47a
0000270d
00003c10
000044db
000048a2
00000297
00000454
fffffbe1
000008d8
fffffd40
0000077e
fffffa83
fffff84c
fffffd31
0000030b
0000040d
00000105
00000845
000008e4
000001b0
ffffffc7
fffffd0b
00000314
00000037
0000077e
000006d7
fffff76f
00000171
000008bd
fffffbba
fffffaa3
000008b1
ffffff3b
fffffd3a
fffff9d8
00000446
fffffec1
00000776
0000033f
00000386
fffffe31
fffff926
ffffff7c
fffff435
fffffb52
fffff6d9
0000022c
fffff839
000004a1
fffff130
fffff599
fffffde7
ffffea73
ffffeee8
fffff822
000003a8
fffff9df
000004ee
0000039e
000000ff
000002d4
0000003c
fffffa3b
000006ee
0000074b
fffffdfb
fffff9bc
fffff8c1
0000014d
00000448
fffffde6
fffffb5a
fffff920
00001d0c
00001689
ffffdf9a
ffffd439
ffff8987
ffff95c3
ffffa5cf
ffffec18
000002b0
000023bb
00001bc3
000012d5
fffff0e6
ffffd496
ffffc520
000020c9
00002f9e
0000002a
fffffdaf
fffff79a
fffff839
fffffb7e
000001fd
fffff7e0
000007b5
000004e6
00000aed
ffffbf46
ffffbb65
00001dc6
fffffdb8
ffffd9fe
ffff74c2
ffff4220
ffff3840
ffff746c
ffff552c
ffff787f
ffffd34e
fffffa18
ffffb1c3
0000150f
00002f49
00000927
fffffcf3
0000531d
00005386
000001c2
fffffae7
00000757
fffffb86
fffff0d5
ffffc91a
ffffef8e
00002561
00001084
ffffccd7
fffff1f5
ffffb8fc
ffffb331
ffffa7cd
ffffa25d
ffffb4c8
ffffda41
ffffd655
00000fe0
00000d39
ffffd9ac
00000207
00002163
0000459b
00003bde
000041a0
00007584
00002d7c
ffffc409
fffffc1f
fffff781
ffffea51
ffffc74e
fffffabe
ffffe58f
ffffe632
00000f01
00003d35
fffffa04
ffffdc56
00001502
000020fc
00000ee6
fffff7ad
ffffd544
ffffd078
ffffe487
ffffefc2
ffffd6ba
000001d4
0000234e
000036c3
000028bf
00001be7
00005857
00001e7b
ffffea71
00000141
000004e7
00000107
00001666
00002d9e
00003bee
0000032e
ffffff6b
00001d0d
000023c3
000012f5
00001c1a
00003127
0000080f
fffffdc1
ffffd2ee
ffffc281
ffffefc0
00001a9d
00002758
000008ba
000038cf
00002cb8
000042a9
000031fc
000051fb
00002d1d
ffffe894
00000b78
00002d0e
00004507
00003ec2
00002f64
00001d81
fffff2c8
00000932
000018e1
0000058b
000011c2
000000f3
00001e65
00000b6c
ffffe94b
ffffe067
fffff689
00000d6c
00002371
00001884
00001de7
0000361c
0000378d
000034c2
ffffd903
ffffdcac
0000265b
ffffed09
ffffafc3
0000521d
000026f4
000025fa
00004230
000007b9
ffffe838
000011d7
00000ec2
00000af7
00001451
00001410
00000e94
00001736
00000827
fffff4e2
00000c96
0000154f
00000eba
000026cb
0000293d
000014e4
00002408
00005ad5
ffffd925
ffffd500
0000453e
000035b3
0000165d
0000122d
ffffed72
000009db
00004ed6
00001716
fffff9b7
000016fa
000024b8
00000f0d
00002751
000014aa
0000236d
00001c25
0000297d
0000107b
00000a26
00001305
00000fed
ffffe7ab
00000ae7
000017ef
00001807
00003ef5
00001de6
fffffced
000064f0
00004063
0000153e
0000105c
ffffedbb
00000a0d
00004aaa
00004bfb
000040d3
0000276c
000029f7
00002ce3
000037f3
00002b23
0000358e
00005854
00001f1e
0000080d
fffff3b5
0000001e
fffff68e
fffff7fc
0000011a
00000a8c
fffffaa3
ffffe914
000001ff
ffffeb35
00003372
000000b6
00000d46
000005d3
fffff3e7
00000c94
00005d84
00005be1
00003d87
00004120
00002a43
00003235
000031a6
0000470f
00005f3d
0000311d
fffff1a1
000008d4
0000072c
000003b3
fffffae8
000002b9
00000d89
0000003a
ffffc7d8
fffffba1
ffffd041
00000015
0000382e
ffffdf58
00000e79
00000da4
fffffcec
fffffb6e
00000e26
00001a14
fffff2d0
00003cc0
0000260f
000035ad
00002485
fffffeea
00000ee2
ffffb8af
ffff9ee8
ffffe8b1
000000b6
00001746
fffffb37
fffff9ee
00000aba
fffff72c
ffffcdb3
ffffeb87
fffff48f
000023d8
00005105
ffffdae0
ffffe508
0000080c
0000379e
fffff366
ffffd0c2
000009a6
ffffd813
ffffe7fe
fffff42f
0000124c
00000a10
ffffc453
ffff8d58
ffff8999
ffffce5b
ffffd55f
ffffdbdf
00000e03
fffff61d
ffffe510
00000dc5
ffffe7f0
fffff70f
ffffe8ec
ffffcc5a
ffffcb9d
00001a4a
000006d3
00001790
ffffff63
0000265a
fffffcf4
ffffe133
ffffc64d
ffffb7b3
ffffa2a0
ffffc56c
ffffb5e8
ffffbf12
ffff68f3
ffff6049
ffff96be
ffffe5ce
ffffedb6
ffffcdbc
ffffe113
ffffe225
ffffdebd
ffffff5e
ffffe652
fffffa9a
ffffeb75
ffff9058
ffffa8f2
000009b4
000003c7
00001a05
fffff27e
ffffeab3
fffff6e6
ffffc223
ffff8722
ffff76dc
ffff84e0
ffff9019
ffff8c85
ffff7330
ffff919a
ffffd09a
ffffe9ec
ffffe6d6
fffff42a
ffffd660
ffffc6db
ffffcf4a
ffffc3ea
ffffcb09
ffffdf11
ffffde6e
000006e0
ffffeea0
ffffc785
fffff80d
00002a51
0000103f
ffffebf6
ffffc309
ffffeb18
ffff738f
ffff69d7
ffff7d28
ffff7781
ffff8998
ffffb466
ffffd6cb
ffffedb0
00001657
0000002e
ffffff17
00000aa7
00001226
00000089
fffff74a
ffffeb20
ffffe0aa
00001c03
fffffe8c
00000d2e
ffffd2a6
00002d95
000012c9
00003cdc
fffffd0c
ffffee07
ffffe84f
ffffee86
ffff930f
ffff5b05
ffff8919
ffffb996
ffffd95c
ffffdbcc
00000417
000031d9
00001d1f
00002ab7
000007b8
00001063
00000ea6
00001046
00001ab2
00000b8c
000004c4
00002e47
000011b4
fffff34e
fffffe55
00007ff7
00005c58
000041d5
00002c36
ffffefcb
fffff5ef
fffff7fc
ffffeac3
ffffa718
ffffc468
fffff644
ffffe4ea
ffffe93f
00001114
000015c3
00002fd1
0000247e
00000e3f
00002c1e
ffffff1e
ffffff77
00000f82
ffffea4c
ffffe135
00000994
000001c6
ffffe356
ffffdfd6
fffff959
00003703
000024ca
ffffecaa
00003940
00001dce
ffffb821
fffffc3f
ffffe4b7
ffffe752
ffffe570
00000b18
00000dc4
00000e2c
000010a9
00000f19
00003d57
00003143
000010eb
ffffe88f
00000341
00000e55
ffffde39
ffffeebb
ffffdf17
ffffe5c6
fffff4f4
ffffbb00
ffffce6b
00003c5c
ffffdcc8
00000188
ffffe9e9
00002e55
ffffe723
00000dee
00001b41
000028a8
fffff8af
00002183
0000424f
00001cff
0000129d
0000018f
00001cd7
00001099
00002392
fffff231
00000e11
fffffeef
ffffdd6d
ffffdc4e
ffffe3ed
fffff151
00001c98
ffffdd49
00000c91
00002325
ffffed13
ffffe95a
ffffe643
000013da
ffffe91f
000013c9
000020c8
00000361
fffff647
000019f1
00004116
00002b97
00001952
0000163a
00002e14
00003785
000024e4
000007c6
0000265d
000000eb
fffffa15
ffffddde
ffffdf98
000003f5
0000394e
0000105a
00002932
00004381
00000121
ffffe5f4
ffffe6e1
000007f8
ffffd970
00002c8c
00002a41
00000631
0000220a
00002436
00003537
00000e74
000007a7
000015e9
00003293
00002bcf
0000145b
0000045b
000015a1
00000772
ffffff07
ffffdacc
ffffce09
ffffdf48
000045ed
ffffec66
00001449
00000b7b
00000408
fffff81d
fffff76c
ffffdba1
0000011e
00003b44
00004157
0000302a
00001b39
000006ce
00000a48
0000034a
000010b5
0000176e
000027d4
00000fae
00001008
000019fb
00001bfc
00001d9a
00003d1b
00001d8d
ffffefe8
fffffa2c
00003945
000048f1
00001b9a
fffff399
000008e0
0000040c
00000904
00000fd7
0000132e
00001ebe
ffffee1c
fffff5ad
ffffe93a
fffff915
ffffee6d
fffffa10
00000592
00000c4d
00001048
000006b9
00001fba
0000151c
00002e24
00005a2e
00006700
00002930
fffffeef
00001722
0000104d
00004469
00000266
ffffe23e
fffff6eb
0000054b
fffffdb2
ffffc753
00002b57
00000bb3
ffffd1ec
0000304b
0000375c
0000089b
000001e2
00000650
0000258d
00002d5f
00000ed1
000012a5
000040b2
00003159
00004c0b
000049ca
00003896
000035ce
00003208
000047b5
ffffe7a2
00000095
ffffeb7e
00000009
fffffc26
fffff7b3
ffffffba
00000450
ffffc89b
ffff9363
ffffb20c
ffffd278
00001898
00001b19
ffffe576
ffffe7ef
00000b0c
00000864
0000347a
000003e2
000006fe
00000d3b
fffffb5e
000008bb
00007ade
00003fd2
00000d00
00000f23
fffff2f7
ffffd2ff
00001466
000007df
000008e4
00000634
000001ca
0000005c
fffffe5e
00002c61
00003c69
0000626f
00005757
00004322
000022f0
00004aab
00001dcb
00001905
00008638
000040e6
ffffea87
ffffea7e
00002932
ffffe6a0
00002e02
00001aa8
ffffe77c
ffffedbe
00000322
0000038e
000005b1
00000131
fffffff1
fffffa0d
00000054
fffffc89
fffffe0f
0000024f
00000726
00000629
00000692
fffff7eb
fffffe58
000001b3
00000133
00000c10
0000048b
fffff8da
fffffacd
00000154
000001eb
fffffd36
fffffab4
ffffffb2
00000408
fffff828
0000048f
fffffe54
000006f7
ffffff78
fffff824
000003c6
fffff804
0000007d
fffffc4f
000004d3
00000c22
00001ba1
00000fac
000018da
00000a98
000017e0
fffffd8d
00000010
00000f9a
ffffef26
fffff9c3
ffffe4be
000005c0
00002c04
00002c47
000032fb
000014f3
00001551
00001561
000005c5
ffffffaa
00000304
00000490
fffff9f6
fffffa28
0000083c
ffffd070
ffffe100
00000da2
0000110e
000017fd
00001df5
000000cd
000002d1
00003847
fffffe55
ffffcabd
00001e29
00001d23
00002495
00003b82
000037ac
fffff189
000018e5
00004930
0000462b
000021b5
fffffebf
fffff77c
fffffd54
000003fe
0000088a
fffff898
ffffc117
ffffcf66
000001b2
00000cca
0000325e
00000277
00001128
ffffd7db
ffffc410
0000101c
fffffe86
00000d44
0000174d
00002f1e
00000a9f
00001b3d
000039ea
0000269c
fffff787
00001da9
0000234a
000025b2
ffffd574
ffffdf73
00000342
00000575
fffffaf9
fffff6dc
ffffc2c9
ffffd650
000003f1
ffffe822
ffffe8c9
ffffc104
ffffbc0a
ffffbcb6
ffffe604
fffffad1
000008e5
fffff666
000027b5
00000c2d
00000075
fffff805
00000a29
00000a96
fffff59c
fffff2d9
ffffd8ba
ffffb6b8
ffffb2bc
ffffd5ca
00002138
00001d9f
00000730
fffff9e8
00000610
fffff4aa
ffffef72
ffffbc82
ffffac8d
ffffaf92
ffffd068
ffffdbe1
fffff7d4
0000297f
00001d25
0000269e
00002bfb
fffff5b0
fffff141
000000d4
fffff352
00001711
00001507
ffffdc46
ffff9ddc
ffffa90a
ffffdad0
00000cfa
00001869
00001ce4
fffff9a5
fffff330
00002abc
ffffd601
ffffc629
ffff6fe2
ffff6a35
ffffc183
ffffd003
ffffe878
ffffeb0d
00001be7
00001039
00002577
00001364
000018a8
00001753
00000904
ffffdfc7
00001529
000023b6
ffffd5b7
ffffca46
ffffdc29
ffffec90
fffff465
fffff4b2
00002608
00000116
ffffdd7d
000024c0
ffffc949
ffffb3b9
ffff6257
ffffb054
ffffb3ce
ffffc126
ffffec3e
000008de
00001aa0
00001008
00001923
fffffc70
00002126
000015c4
0000047f
ffffdce6
fffffa0d
00000a61
00000699
fffffde5
ffffcfd3
ffffd4ab
ffffe6b6
0000210b
00001a75
ffffc6d9
ffffe86b
000006cf
ffffd567
ffffac70
ffff9d0b
000028c1
fffff3fb
fffffadc
fffff910
00000419
00003605
00001937
00001ba2
fffff0e3
fffff64c
000016a4
ffffdf3c
ffffd716
00000028
fffffeac
000017e0
ffffd25a
ffffb6cf
ffffe0dc
00003207
00004474
00001544
fffffcf1
fffff1b1
ffffee00
ffffce9e
ffffa14a
ffffb3e3
000001f9
00001260
00000b40
00000569
fffffbd3
00002119
0000116b
ffffe3cf
ffffd59c
ffffe309
ffffe8e6
ffffd1cd
ffffc3a3
fffff473
00000cb5
00000b35
ffffd4bc
ffffd595
00002377
00004e6a
0000062d
ffffc5f5
fffff373
ffffed09
ffffa1b9
ffffa245
ffffbf71
000003cb
00000446
000014dd
00000963
000014dd
00000db6
ffffffa6
0000104e
ffffca0b
ffffe0ec
ffffdf49
ffffec4f
ffffd675
fffff979
00000cba
000007b6
fffff025
ffffdbb3
000000f4
00001b26
0000119e
ffffe908
ffffc616
fffffb1e
ffffa9fb
ffffec9d
ffffab97
ffffd8f0
00000d4d
00001624
00001c02
00001eb9
000029dd
00000f78
00001900
00001adb
fffffe74
00000a71
000010c6
000013c5
00000c1f
00000447
000016a7
00000bd1
000028a0
00000ed0
0000035a
00003f7b
00004c0f
000027d6
ffffbf37
0000063b
ffffe82f
ffffe790
ffffb3f7
0000001e
fffff917
000022a6
00001424
00000998
0000153b
00000d9c
000020cb
fffff05a
fffff4ca
00000636
00001464
00000f15
000013df
fffff70a
fffffc33
00000533
00002da2
0000240d
00004692
00002ccd
000023a8
ffffccae
ffffad89
ffffce76
fffff0ae
ffffc794
ffff9cc7
ffffd060
ffffff85
000005be
00001bf2
00000132
0000029f
0000171c
00000179
ffffe70e
00000d43
00001357
0000309c
00002328
fffff9f7
ffffe462
fffff070
fffffd67
000011f8
000023f4
00002a44
ffffff00
fffff242
ffffcecc
ffffec55
ffffeb76
ffffe762
ffffc797
ffffa3bd
fffff1c1
fffff8e9
ffffffb0
00001d78
00000818
00000e14
00001f49
00001748
ffffea26
000002e7
00000b0f
00001d4b
00001e68
00000957
00001941
ffffe0ae
ffffe9d8
00002058
0000165a
fffff85d
ffffb967
00001f9f
ffffc317
ffffe4a9
ffffe26b
ffffea9c
ffffbe6e
ffffb041
fffff514
fffffc73
000005ed
0000195a
00001779
0000056d
00002294
00001b20
fffff567
fffff378
fffff053
fffffb63
000015b5
0000261c
00001955
ffffeeeb
ffffd3ed
fffffcc6
000006f9
fffff36d
ffffdbbd
00002858
ffffbc8e
ffffb8bf
ffffe85d
fffff5e9
ffffd4a4
ffffa558
ffffb337
fffff013
ffffd94d
ffffd955
00002019
00002352
000030b9
00002c28
00000ba1
fffff276
ffffdbe7
fffff833
00002d30
00002f1c
00001b8e
ffffe91e
ffffed24
ffffcdc2
fffffadd
00001022
ffffd2f5
00004274
ffffad3e
ffffc5f6
fffffdb6
ffffe5c8
ffffc78e
ffffae28
ffff985e
ffffd1a8
ffffd94f
ffffe628
00002e70
00001d37
000030b6
00001e12
00000422
ffffef1f
ffffd62e
00000635
00001f27
00001e3d
00000218
ffffdfcd
ffffeb61
ffffd979
ffffefa2
00000868
ffffe6c0
ffffe7dd
ffffcb96
ffffbd8a
0000328a
fffff762
ffffe1b0
ffffc00d
ffffdabc
ffffbfaa
fffff491
00000f35
00000cfb
000010c8
0000197e
fffffb31
00000c18
fffff54d
fffff7fd
fffffda4
000001c5
000012ea
ffffe319
fffff0c7
ffffe13a
ffffedcc
fffff3ea
000010ff
ffffe7f0
fffff171
fffffdda
ffffe03d
00000245
ffffc85e
ffffce93
ffffe44e
ffffd414
ffffe34f
ffffe17f
fffff5bc
fffffd73
00000266
00001bcb
fffffdef
00000150
ffffe5f5
ffffe887
fffff570
ffffff4b
0000030d
fffffe40
fffff717
ffffefcb
fffffa22
000038ea
0000305d
00000830
ffffda19
fffff991
00000477
fffff971
ffffeb71
ffffebd2
fffff7ad
ffffe48d
00000d94
ffffe89f
ffffdfcd
ffffe68f
ffffe79c
00000c7f
ffffff3f
fffff2e3
ffffedc8
ffffeb12
fffff5cf
ffffe8d0
fffff0ed
ffffdd32
ffffdd2d
fffffdcf
00000ca5
000026ee
00001f40
000034d7
00004549
ffffe742
fffffafd
fffff81e
ffffff3d
ffffacc5
000005b2
00000a73
00002137
0000054f
fffffbc3
ffffe289
fffff9db
fffff1cc
00000bb9
00001893
00000e6d
0000104f
000001cf
fffff251
00001f6a
ffffe457
fffffa92
fffffe67
fffffcea
00001de4
0000116f
000014ec
fffffc79
ffffb482
00000303
fffffaf9
ffffefd9
fffff58d
00003b3d
00003c35
ffffed72
ffffe687
fffff15c
ffffd649
ffffd9ad
0000088e
fffff5b5
0000189a
00000867
00001b50
fffffdbc
000007c2
00000a02
000000df
fffffe6f
fffff6a4
ffffdf97
ffffe216
00001389
00001f86
00001469
fffff307
fffff834
000000e4
00000277
ffffd330
00003e7c
00003800
00001739
fffff9b4
fffff5e2
00000891
ffffc5cc
ffffc061
ffffc3aa
ffffdc34
fffffb85
00001037
0000024f
00001495
ffffe446
ffffffb7
00000660
000017df
0000030e
00000a25
00002bd6
0000505b
000027f6
fffff6b2
000006b0
fffffdc9
fffffc12
ffffeb51
fffff708
ffffb7d1
ffffe5a0
fffff008
00001e05
000032f9
00000a6a
fffff26c
00000882
00001fc8
00001e3b
0000056a
00001301
00002c2a
ffffc79b
ffffdc33
ffffe11c
00000d2d
ffffd7fe
ffffe999
00002172
00000797
ffffdeff
fffff15f
000000ed
00000634
fffff785
00001fd2
fffffdce
ffffcc8c
ffffd355
ffffdddc
0000069e
000009c9
00001957
000018df
00000cc5
000005c6
00001708
000010a9
000011e3
000015d2
00002bb7
ffffff18
00002327
00003006
000020c3
ffffef8d
000000d2
fffff89b
fffff84b
fffffcf6
0000052e
00000658
0000019c
00000664
00000594
0000185b
0000248c
0000305e
00002c9b
000031a0
00003f57
00002d51
000036f1
0000432d
00002050
00002d9d
00000aeb
00000e4c
000030bf
00002154
00000aba
00002162
00001952
ffffe496
00003cd5
00001efa
fffff91d
0000081c
fffffbeb
000001aa
000004c0
fffffc5e
fffff848
fffffa82
ffffeed3
000011cf
00001082
000004aa
fffff1db
ffffef3e
0000039f
fffffbfc
ffffe592
0000067c
000013ce
000007e9
ffffc95d
00000694
000028e1
ffffdfdd
ffffc46a
ffffd8ac
fffff58e
00000886
fffff8de
fffffb58
fffffff4
00000086
00000640
fffffef2
fffff90a
00000737
fffffa5c
00000468
fffffe3f
00000202
0000030d
fffffca3
00000697
000004b5
00000188
00000626
fffffa91
0000014a
fffffdd6
00000193
fffffce6
00000387
fffffbee
fffffbb3
fffff6fe
00000506
000008a7
fffffa1a
00000712
00000489
000006eb
0000084f
ffffff5a
fffffdab
00000f4e
00001295
000016e0
000017ed
00001be3
000023fa
00002ae4
000023e4
00001e52
ffffec7f
0000308b
0000076f
00001b42
00002676
0000227c
00002b79
000019a7
0000165d
0000204d
00000590
00000357
fffffeb2
000006e7
ffffff52
fffff78b
fffffca6
ffffccb6
ffffd722
00003109
000015a7
000022c9
000049a0
00004c7f
000031af
00004edd
00001cde
00000e60
00004e0f
0000474f
00002c3f
000034c9
00003f86
000000b5
fffff126
fffffce0
fffff5c3
000005f6
000019b8
fffff835
00000744
00000586
fffffd01
fffff8dd
ffffe7e8
ffffc3aa
ffffdf13
00001cae
00005dad
00004513
000023f0
000037cb
fffff7d5
000009a5
ffffda2f
00000208
0000143a
fffff08d
fffff041
fffffd70
ffffe8d0
ffffe94d
ffffae51
ffffc685
00000881
00005afb
00004942
00000eb9
fffffe48
000005eb
fffffb2f
fffffad0
ffffda5c
ffffc199
00003042
00005a9a
00004ca0
00002f54
00002f81
00002727
000001dd
ffffda7f
ffffde63
fffff388
00002a91
fffff2e0
0000081e
fffffe56
ffffd23f
ffffc1f7
ffffa7d8
ffffa26b
ffffd583
000012bf
fffffb4e
ffffe9a5
000003d8
000004e1
fffffb27
0000084e
00001cf8
ffffad52
000030a0
00005ece
00003574
0000225f
00005c99
00002217
fffffc0c
ffffe3a0
00000008
00001330
00000fec
ffffe389
00000014
fffff227
ffffcf66
ffffca1b
ffffd402
ffffe015
ffffd88b
fffff81e
000004ff
000024aa
000022b8
000008b7
fffffb70
fffff292
ffffeeb3
0000116c
00002d9b
00004ed9
00001bd2
00000dab
000034cb
ffffffbd
ffffe2a8
00000c16
00001a6d
ffffeea0
ffffe13d
ffffddd3
ffffe26d
00001a40
000003f4
ffffed6f
ffffe444
ffffe2ad
ffffccc7
000002ad
fffffed1
0000446d
ffffe539
000035e7
00000da4
000005ff
00002bf2
00001bda
00001a2f
000019e4
000005b1
000023c0
00001a5e
00001f67
00001b37
00000190
fffff93f
ffffd592
ffffd018
ffffe3ce
ffffe919
fffff940
00000dc7
ffffef2b
fffff0be
fffff37d
ffffad62
ffffb9a0
0000101a
00006ee7
ffffe1a6
00001dec
ffffebf6
00003021
00002fe7
00000d44
00001d21
00002b47
000021fc
00002f3a
000036e6
000036c5
0000231b
ffffe5e6
ffffc8f1
ffffc954
ffffd59a
ffffd5f1
ffffe002
ffffdf3f
ffffea8d
fffff05b
0000008e
ffffe44a
ffffd43d
ffffff0e
fffff70d
00003e10
fffff6ab
ffffddd2
00001b0d
0000184e
ffffec12
00000aba
00001b0b
000012d2
fffff552
000019b4
00003c9e
fffffe11
000004bb
fffffe34
ffffc339
ffffc1e6
ffffd91e
ffffe4ec
ffffeafb
ffffebc9
ffffe661
fffffc73
000015cd
00001ba6
fffff83c
0000148c
00000ece
fffff3ff
fffff16f
ffffeac2
00000ee9
00002502
00000d88
ffffdea3
00002b0c
0000131e
ffffff73
fffffcce
000014f3
0000212f
00001385
00000a01
ffffde1a
ffffd913
ffffdd33
fffff627
000009b3
fffffcc2
000018f6
000013ab
fffff713
00000a21
fffff4e1
fffff7f2
00001ab0
ffffb65c
ffffa985
fffffd67
0000037f
00003a8a
00000e92
00002f9f
00002519
00001b91
fffffe70
00000790
00001840
00001a1c
00001e56
000014ad
000017f0
fffff166
000003ee
000014ef
000019b0
00001a61
0000289c
00002072
fffffe6d
0000192a
000016d5
0000062c
ffffe468
ffffe4b2
ffff9ee8
000030fe
fffffd81
0000259c
fffffc07
00004bf7
00000de6
0000187a
ffffc748
000011be
0000338b
000003d7
00000483
000014a5
000009ac
ffffee41
000000f5
00001401
00001d40
00000aa5
0000188c
00001663
ffffe5d1
00002203
00001d4e
fffff596
000019c9
00000faa
ffffd8a9
00004867
ffffd6ec
00001309
00004442
00004dc2
00001be0
000016d5
fffff597
000007cf
00002110
00001eae
00000f48
00000d0f
ffffbf70
ffffe16a
fffff98a
000004c3
ffffea20
ffffe4c3
00000e9a
000006c0
000000cc
00002d4d
00001579
000000ac
00000b8b
00000a51
00001ee5
fffff94b
00000350
000011d5
00004f4d
00003f48
fffff10e
00002854
000018e1
00001759
00002bb6
00002bee
0000249d
000002e4
ffffcd25
ffffe8fc
00000f26
fffffa55
ffffef1a
0000070d
00003500
00002563
000002e7
00000d67
000016e0
0000075b
fffff840
fffffcff
fffff9b9
fffff861
00001975
ffffe89b
00002966
000052f2
ffffb30a
ffffec85
00002825
0000310f
00000abe
00000054
fffff789
00000172
ffffbf68
0000050f
00001a95
00001911
0000060c
0000240e
00001f90
000017af
00001991
0000074d
00000a32
00000c24
ffffe5db
0000214c
ffffeb8e
fffffcc7
00002a53
ffffdca7
00000f47
fffffea0
ffffef5e
00000b8e
00004211
00002cdc
00000d12
ffffe4b6
ffffcacf
ffffbc91
ffffa625
000002e9
00003a0e
0000431e
0000563a
00003800
00000d34
00002044
000021fe
00000feb
ffffe69b
000000f4
00000117
00005276
00001237
ffffcef0
0000003f
ffffd9b7
00003790
ffffe1f5
fffff480
0000094e
00002a45
ffffd7a2
ffffee6d
ffffca12
ffffa48e
ffffb01d
ffffbe54
000032ed
000046cf
00005527
000060ef
00003ddf
00002cbb
fffff558
00001fc9
0000166a
fffffaca
fffff28e
0000438d
0000740e
000011ff
ffffaefc
00001ca5
fffff601
000015f9
fffff6ad
fffffbb1
fffff251
000008ea
ffffee43
ffffbb99
ffffa61e
ffffa612
ffff83ef
fffff38a
00004f83
000055a0
000048b1
00003c73
000041b3
000032a6
ffffee46
fffff39d
fffffd19
000006a6
ffffd18c
00002a8f
00006035
00002c3f
ffffe331
fffffa7d
00002f27
0000019d
ffffae0f
fffff633
ffffcf69
0000084e
ffffe5fb
ffffb6c2
ffffbf95
ffffa6ca
ffffcd83
00000333
00005130
00005845
000044a4
00001f92
00003e75
00000aed
fffff3d4
ffffeca9
ffffcc78
ffffe1b6
ffffdb93
fffff918
fffff1b8
ffffe222
ffffe122
00000302
fffffe87
000008b5
ffffb07e
ffffc367
ffffeebe
ffffe266
ffffe8df
ffffada1
ffffa064
ffffc52c
ffffe2db
0000481a
00004ba3
0000410f
00004efc
000024e5
00002337
000009fe
ffffdc17
ffffd7c1
ffffce28
ffffc2e3
ffffb080
00001213
ffffdb96
fffff339
0000041e
ffffeef5
0000032b
fffff4f6
ffffd6c9
ffffbdb1
ffffbdda
ffffb270
ffffae8a
ffffd8e5
ffffc5b0
ffffe0b7
000007d5
00001e93
000041a2
00004e6c
00002ee2
00002424
000022ea
ffffee6f
ffffd88e
ffffa3d2
ffffdda6
fffff442
ffffcebf
fffffa4d
fffff364
00000fdd
fffff407
fffff9d4
fffff0f1
ffffe6d9
ffffcce6
ffffd0c5
ffffc681
ffffb886
ffffc045
ffffee5f
000009d5
ffffcb13
ffffd449
fffff0d8
0000013d
00000aac
00000b45
0000164c
fffffd87
ffffdca1
ffffda87
ffffbbad
ffffe8d7
ffffe06a
ffffc664
fffffebd
0000121c
ffffd888
000000e2
fffffc27
00000028
ffffe0d2
ffffef05
ffffe6fb
ffffc971
fffffc88
fffffaa1
fffff809
00000aac
ffffbf47
ffff9e97
ffffe9b2
ffffe574
ffffe365
fffff25f
00001626
000016a1
ffffec7c
fffff9ed
fffff7cd
00001e1d
00000c42
fffffb9f
ffffaab9
ffffda70
ffffc3c2
00000080
fffffde7
00000684
000013bb
00002b69
000029c7
ffffea40
ffffdca5
ffffbada
ffffce87
ffffc5d3
ffffd26d
ffffc7df
ffffce02
ffffc612
ffffd58f
00000950
00002290
00002190
00000923
00000ce0
fffff7c6
00001456
000011cd
ffffeffa
000019ce
ffffef21
00000290
fffffcaf
0000050d
000000a6
ffffc83a
000007c2
00000871
ffffc014
ffffc73d
ffffb91b
ffffe27f
ffffcf03
ffffbc5a
ffffd9c5
ffffc57f
ffffbcfb
00000ee7
00004178
00002cdd
000030cf
00002ce5
fffff0e4
ffffdc64
fffffd68
00000db4
fffff7dc
ffffc415
ffffe093
00000592
fffff91a
fffff756
fffffb3c
00000174
ffffeec1
ffffe2a1
ffffa808
ffffa4f4
ffffb9d9
ffffb477
ffffd116
ffffc463
ffffcff7
ffffe1cc
0000135e
00000164
00000c8b
fffff742
fffffcd5
00000df3
000009b2
ffffdba2
ffffe317
000023df
ffffe0d2
ffffeb8c
00000a94
00000262
fffffdb8
ffffffbe
fffff893
00000592
ffffffda
000014a8
000027d3
00000f9d
00000681
00001801
00001e64
00003111
000009bf
00001a61
0000308c
0000161a
fffff21f
00000c05
0000452b
000028fe
fffff848
000018cc
00003dc8
00004927
0000357f
fffffbc2
00000732
0000027c
fffff8fe
fffffa77
fffffbce
fffffa72
fffffa81
000005b1
fffffe37
000004cc
ffffff93
fffffe48
fffffebe
0000090c
000002be
00000422
fffff806
00000042
fffffe4e
fffff89e
00000824
fffff7a2
fffffd95
fffff7ae
fffff848
fffff87b
0000073e
000001f1
0000060d
fffffecd
000002a0
000006e3
00000332
fffffc35
000008f4
fffffeac
fffff9c5
fffffcff
fffff6ae
ffffee04
fffff899
ffffcf4d
ffffb179
ffffc3d0
ffffcc2b
00001f9c
000014aa
ffffc7b0
ffffc69c
ffffef3e
ffffe0e2
ffffcf72
ffffe43a
fffff9ca
fffffc8a
fffffe01
fffff82c
fffffd0c
00000427
000006b5
0000075e
ffffff34
ffffb9eb
ffffb89c
fffffe34
ffffea9a
ffffe1d9
ffffecfc
ffffeabb
ffffd6e8
ffffcba0
ffff76c4
000001f2
ffffbcd1
ffffdb23
ffffe339
ffffda86
00002fff
00002c44
ffffec38
ffffacee
ffff9bf9
ffffa3c3
ffffd4dc
ffffe84b
00000276
fffff9e5
00000833
0000066b
00003872
ffffd297
00003fff
ffffabca
ffffbbb6
ffffdd7e
ffff7752
ffff6212
ffffeea8
ffffe512
00001dfb
ffffc7f9
ffffe58b
00000c93
0000043a
000031f1
00005069
00002d8e
00002ef3
00001eb3
0000152c
00001031
fffffc25
000032c8
fffff71c
fffff9db
000008dd
fffff8df
00002bad
000041ad
ffffe409
ffffbd42
ffffb78a
ffffa352
ffff8ada
ffffa100
ffffbd74
ffffe3a4
ffffe317
ffffda99
00000e24
000001bd
ffffec8c
ffffe957
00000bd3
00001067
00000a1b
0000140e
fffff134
000017fc
00002d59
00002090
000025e5
ffffc6b9
fffffbce
fffffe8e
ffffdeae
00004874
ffffd161
00000842
fffff80d
ffffe3df
ffffc3f9
ffffdcf2
ffffecd1
fffffcf7
fffff532
fffff34d
000003a2
ffffefab
fffffaa1
fffffb05
ffffda82
ffffde56
fffff1a6
ffffd71f
ffffc628
ffffbe13
ffffe19d
ffffec02
00001023
ffffe2ff
000001e9
ffffe13b
000003cc
00001417
0000123d
00001132
000021b1
00000c96
ffffdf6f
ffffccae
ffffee0d
fffff624
fffffa7b
000008d8
00001062
00000b38
000001cc
000009e0
00002601
00000fe0
00001f40
ffffed8c
ffffd501
00001028
000006b4
00001bd7
0000271f
ffffe0ab
000002be
ffffed3d
fffff910
000039bd
ffffd07c
ffffc766
fffffa6b
fffff379
ffffc7db
ffffdf97
fffff641
fffff51d
000031ea
00001ce6
00002a09
00002131
00001729
00001970
00001308
00001200
00000e62
fffff360
fffffe3e
0000329b
ffffeba6
fffff535
0000354b
fffff193
ffffae34
00000999
ffffdd3e
fffff270
ffffaed6
ffffe0ba
fffff02e
fffff7a1
ffffe9a9
ffffd944
ffffe8e5
00000d49
000018d6
00002848
00003055
00002bd7
00001496
0000126c
00002b00
0000023a
00000a0f
00000ed3
000010e4
000017d9
00003fab
00002722
000023b7
000052b0
0000098c
00005917
ffffc426
ffffa77f
ffffd087
ffffe748
0000040f
fffffc7d
ffffecf1
ffffdf12
ffffe6a9
ffffef4c
00000c93
00003cb7
00002504
0000095c
fffff4a4
00001bf2
00001e09
0000115d
0000008c
00001d9a
00003002
00000fc8
00002d14
00006eff
00003883
000044fc
00000c1c
000038a7
0000126a
ffffcac8
00000bf7
ffffd750
ffffed5b
000007eb
ffffe05c
ffffba39
ffffdfae
fffff7b2
00000b84
00001c4a
00000d6e
00000177
fffffb41
ffffe950
00001bf4
00003667
00001d18
00002ca3
000033dc
00001eab
00004732
00008c6c
00004e48
0000217f
00001d4f
ffffc4d4
00004732
000020a2
000028cf
ffffee89
ffffef15
00001139
ffffdedc
ffffdc39
ffffd63f
ffffeb38
fffff747
000012d0
00001bad
000019b8
0000216e
000017f8
000036a5
00001348
fffffc4e
00001421
00002c2c
00004f9d
00006ed4
00008aaa
0000810b
00002f3b
00002097
00000ae5
000057e9
00002b90
0000288a
ffffeee8
ffffac3d
ffffce21
ffffcf6a
00000672
fffffa5f
00000c68
ffffe194
fffffcac
00000001
00002b13
00002593
000014cc
000010a9
fffff82c
ffffe15a
ffffe092
ffffbfcd
ffffdb2d
ffffbd07
00002581
000060d7
00003447
ffffe7f4
00000d56
00004c6c
000001f0
ffffcab1
ffffc78e
ffffc574
ffffc7b6
ffffd1e4
0000017a
fffff9a8
000000e3
fffff3e9
ffffe838
00000c02
000022c7
000010c0
fffff6ad
ffffcb62
ffffd200
ffffbbcd
ffffcd88
ffff7d92
ffff7252
ffffb08f
000014c3
00002c11
fffffb4f
00001aec
000014d7
00001673
fffff5a4
ffffd351
ffffe7c6
ffffeb6b
ffffdd6c
ffffe874
fffff867
00000d92
fffff9f2
ffffc217
fffffcdc
0000140b
0000175e
00000a8b
fffff208
ffffdde4
ffffe2c4
ffffef75
ffffc7dc
ffff77da
ffff7af5
ffffd1c6
000025b0
fffffd8a
ffffffe7
000014a7
00000bb7
ffffd47e
fffff748
00000c3b
000043b9
0000330e
00001c46
000011b2
ffffe550
0000063f
ffffd66f
ffffc6d7
ffffe984
00000245
00000e3f
000001f2
00000612
00000add
ffffcdaa
fffffd83
ffffc0c2
ffffb978
ffffe1aa
fffffbae
00001bc9
ffffd74a
fffff1fc
ffffffd3
fffff297
ffffce94
fffffac4
00004a6b
00002ae8
00000fa1
00000193
fffff6ec
fffffc10
00000b5e
ffffdaa0
ffffdd9c
fffff532
fffff6a8
00000e33
00000e2a
fffffa9f
ffffe2f7
ffffdf74
fffffeb1
ffffa504
ffffa937
ffff82b9
ffffb467
ffffb3b2
ffffff13
ffffd8fd
0000038c
00000933
ffffbe69
ffffe15e
00000ef6
0000017e
00002e38
00003fa3
00001b8f
00001e13
000009bc
00000462
ffffdda7
fffff859
00001e03
00001d75
0000221e
00001597
ffffec71
ffffcc0f
ffffe640
ffff640c
ffff8954
ffffaebe
ffffd5b6
ffffc442
fffffa65
ffffbdb5
0000477c
fffffadc
00000269
ffff8495
ffffce48
fffff186
000001f5
0000358f
00002c19
00001d80
00001e92
000028d1
00001654
000024b8
000028eb
000015b7
00002e16
00001db1
ffffe5d7
ffffdf8f
ffffd47c
ffff882e
ffff8557
ffffcdf2
ffffcf08
ffffaaae
0000156b
ffffe85f
fffffa5b
00002cf3
fffff31e
ffff617b
ffff92a8
ffffbfba
ffffebbb
000014f5
00000dea
fffffd80
00000ebd
000000b5
00002a4c
000017a7
00001f7b
000026b8
00003592
000020c6
fffff5b3
ffffcd0f
ffffaefb
ffffcb77
ffffde1b
fffff308
00001391
fffffbba
000009b0
fffff952
fffffdda
fffff0ed
ffffbd7f
ffff82f4
ffffa70d
ffffe498
ffffea7b
ffffe718
fffff235
ffffd9e4
000004ce
000003e8
00001398
00001591
000018fa
00001c19
00001bb9
00000dda
ffffcaed
ffffc1b3
ffffa125
ffffd1f7
000001dd
ffffeb78
00000f05
ffffa7ff
00000ebe
000014e3
00000408
ffffde47
ffffc286
ffffcee8
ffffce04
ffffe2a6
ffffff4d
ffffed1b
ffffd32f
ffffe740
fffff798
ffffff6e
00001485
00000c84
00001987
0000073f
ffffec41
00000082
ffffd0b8
ffffb44c
ffff9466
ffffb7e6
ffff9d54
ffffdd06
ffffab41
ffffbdd7
ffffa66b
00000467
0000035e
fffff8f2
ffffbf4d
00000227
000026bb
fffff4a5
00001910
0000182a
fffff6c0
ffffe6d6
fffff7e1
00001466
00002d8c
00002733
000028e5
000005ee
ffffe8d0
ffffec92
ffffbe89
ffffae9e
ffff8e4a
ffffacc0
ffffb28a
ffffe24e
ffffe2b9
ffffd912
ffffa73b
fffff90e
00000409
00000033
ffffc142
ffffc545
0000190b
00001b5f
000017f5
00001822
ffffee1b
ffffc874
ffffd8cf
ffffe9dc
00000e7e
0000082a
00000ad7
ffffec51
ffffca9e
ffffa52a
ffff9ae2
ffff9278
ffffb0f0
ffffb3d1
ffffbdb0
ffffe44e
ffffb25b
ffffd102
ffffc021
fffff999
fffffcd4
fffff97b
fffffd34
ffffc9d3
ffffe047
00002f83
00001346
00000aff
ffffedf1
ffffcf85
ffffe887
00001295
0000299d
000011e1
fffff407
fffff33d
ffffb8ba
ffff9fab
ffff443d
ffff6c2f
ffffa469
ffff845a
ffffa023
ffffd868
ffffecbd
ffffef3a
fffff600
fffffd81
fffff788
0000061b
00001243
00003dcb
fffff458
ffffee94
ffffc071
000007c2
00000f34
000003eb
ffffed44
00000317
00002a51
00000717
000006d3
00000359
00000796
ffffdd75
ffff9533
ffffb50f
ffffbf3d
ffffc969
ffffe480
00001b6d
00000293
fffffe47
ffffef0d
fffff95d
fffffacc
00000040
fffffbde
00004501
ffffd0dd
ffffd39b
ffffd604
00001182
00002cdf
00006580
00001d98
00002774
0000390c
00005874
00001b94
00000892
00002179
000042c0
00005ce4
00001d15
0000183d
00001608
00001ed7
ffffec2a
fffff7f5
000019fa
fffff737
00000280
000005e6
fffffa48
fffffe9f
fffff9d7
00000dae
000002c0
00001ae5
00002d96
00002690
00001fe4
00006413
00003e83
0000222f
00004951
00008429
0000408d
00003414
00001e6f
00001ddc
00000e78
00000f71
00000185
00000587
00000168
00000660
fffffb85
00000480
0000057d
0000089c
fffffef1
0000063b
fffffbf2
00000768
fffffd98
fffffef4
000008f7
fffff7a9
fffff9e0
00000120
fffff9cf
0000019d
fffff6e9
fffffa2f
000001d9
fffff8be
000006bb
0000019e
fffffb53
fffffe04
fffffc1d
fffffb70
fffff9d5
fffff89f
fffff974
00000013
0000063e
fffff958
fffff722
fffffd38
fffffdbb
00000402
fffffe6c
ffffef05
fffff4a2
fffffbdc
ffffea84
fffff8c0
ffffe6eb
ffffe271
fffff12e
00000057
ffffdc00
ffffd5b5
ffffe944
ffffec9e
ffffdeb0
ffffdcf0
ffffeb99
ffffef6c
ffffe045
fffffa9e
00000378
fffffcf2
0000045e
fffffa33
fffff9d2
fffff2a4
fffff7fc
fffffc8d
000000de
ffffefae
ffffe23d
ffffe393
ffffdd74
fffffba2
fffffd39
ffffd09d
ffff8ba1
ffff8970
ffffbffe
ffffb33d
ffffd27f
ffffd2ab
ffffeb9c
fffff45b
fffff0b1
ffffeea0
fffff041
0000038e
00000214
fffff929
ffffff34
00000026
fffffca7
0000311b
000006f1
0000011d
ffffdcf6
ffffc479
ffffd793
ffffcc2f
ffff9f6b
ffffae04
fffff4e1
ffffe8ae
ffffc896
ffffe8c0
ffffe763
ffffc27f
ffffba63
ffffef8d
ffffdd67
ffffcec1
ffffc82e
ffffc8e7
00001e28
ffffe538
ffffd321
ffffd50b
0000071d
ffffff3f
00000eed
0000435e
000047e1
00002aea
ffffea3b
ffffd281
ffffd1b9
ffffc9ac
ffffb0b7
ffffdb99
fffff09c
ffffbde3
ffffcc03
ffffe1a6
000007fc
00002f66
000035bf
000021ad
00001175
fffff40e
fffff63c
0000263d
000014a3
fffff38d
ffffee56
00002547
00002243
000003c1
ffffff89
000027c9
fffff22c
00001b12
000010a8
00001cce
00000f3b
ffffd579
ffffe1e0
ffffe5a7
000006f9
000023be
00001572
fffffd61
fffff8f8
0000055b
00000d23
fffffc56
ffffd046
ffffd9fa
00000998
00000be4
ffffe711
ffffeea2
000027e7
ffffca36
000015cb
fffffc52
00000f79
00000822
00000ee3
fffffb23
000026fd
00002a75
00000769
ffffe8a8
fffff9ff
000012b3
000020c7
0000203b
00002f24
00000b8f
00000578
000009fc
000018df
ffffe533
ffffd433
fffff12a
fffff6ce
ffffe71d
fffff492
ffffcfdc
ffffbb4d
ffffe9c4
ffffdbd4
fffffac0
000021b5
fffff50c
00000d5b
00001039
ffffde77
00000b31
ffffea89
fffffbac
fffff8b3
0000003b
000013c3
00001e53
0000177d
fffff980
ffffffd7
fffffc27
00001484
fffffcc2
fffff576
00000a56
ffffedcf
fffffa18
000018c2
fffff9aa
ffffbbbe
00002cab
ffffc211
0000067e
ffffda30
000038ca
000034e3
00001700
fffffa95
000019f5
00001fe0
0000216a
0000211c
00000011
fffff3b2
0000129e
00000b53
fffff640
00001046
fffffd00
0000065c
000018a1
00000462
fffffb25
000021b4
00002119
ffffce64
fffff9fd
0000407e
00002469
ffffedcc
ffffed9e
00004905
0000352e
00003402
00001156
00001709
00003306
00002442
000024db
000015e0
ffffdff5
ffffeb94
00000fb6
000019fc
00000f9d
00001bb2
000036bb
00003101
00000c1d
00002018
00002aa5
0000251e
00001706
fffffe6c
00000867
0000483c
0000102d
ffffd84d
fffff480
00002ff3
000006dd
00004bf5
00003005
00001896
0000196f
000003df
0000052e
ffffe963
ffffdbd9
ffffe55c
fffff1f7
ffffe111
ffffebee
fffffd1a
000017d2
00000817
00000f59
0000039c
00002862
fffff612
00003804
00002acd
fffff3c4
000015f9
ffffc6d4
00002054
0000049c
ffffec89
fffffc2e
00004195
000021d2
0000259e
00002003
000014e7
0000116d
fffffcd2
ffffe876
ffffdc70
ffffd83c
ffffd456
ffffe811
ffffd849
ffffec0e
ffffffbd
0000034e
00000d23
00001f14
00001787
00004063
0000182a
fffffcbf
ffffda0d
00000faa
ffffecb0
00000941
0000044c
0000261b
000010bd
00001d86
00003588
00001071
00000697
ffffe546
ffffdbac
fffff377
ffffeb37
ffffed0e
00000499
ffffff02
ffffec5b
fffffa64
ffffff3c
0000210c
000013aa
00003b01
000043ee
00001787
00004eed
fffff6d7
fffff2bd
ffffe524
ffffbd27
ffffdea8
fffffd35
ffffef6e
fffffe45
00000679
fffffeee
0000058f
000008ff
00001b7b
00001553
0000155b
0000149d
000012dd
000024b9
00000cc8
00001fc5
000011c6
00001928
00001766
00002c9c
00003e46
0000287e
ffffef2f
ffffe9ab
ffffdea3
00001524
ffffb727
fffff9f1
fffff26a
00000c07
ffffcc78
00001787
ffffd44f
ffffe80f
ffffd86a
00000266
000037b6
00003895
00000a55
00000a32
00002870
000033cf
00004452
00002ac2
00001a31
000015f8
00000563
000015e6
00000bb9
fffff686
ffffe9d6
ffffd8c2
ffffa9d1
ffffd524
ffffb182
ffffee79
ffffe866
000010c4
fffffa4f
00005241
ffffcd16
ffffce1d
ffffce31
000006eb
00001344
000024b4
00002c94
00002928
00002ec6
0000485c
00005684
00003969
00002249
00001cba
ffffed35
ffffda3a
fffff0f4
000000b4
000025f6
ffffe220
ffffa93f
ffffbce4
00000ca4
000002c9
00000423
00001608
fffff88a
ffffedeb
ffffdc22
ffffc77c
ffffee1a
000005cf
00000147
00000620
0000231b
00004363
00006ae4
00007a0b
000049e7
000027bc
0000015d
ffffedce
ffffe53e
ffffde25
fffffabd
00000ca4
fffff3cd
ffffe1b4
00000cf3
ffff8b06
ffffadcd
ffffc9b5
fffffdf2
00001059
fffffcff
ffffcd19
ffffca61
ffffba34
ffffd10f
00000c17
ffffcfcc
ffffe368
ffffd1bd
000010db
00004043
000061d0
00002948
fffff452
ffffdd96
ffffe229
ffffcf37
ffffd76a
ffffe133
00001c11
ffffef78
ffffd4c3
ffffefd8
ffffda4d
fffff793
ffffb59b
ffffb83b
00002709
00001277
ffff9d68
ffffb69a
ffffbb20
ffffb6a4
ffff9f99
ffff825e
ffff8673
ffffb78a
ffffe993
ffffe1bf
00001652
fffff5ce
ffffcde3
ffffd753
ffffd70e
ffffd9b5
ffffcf48
fffff9d8
00000b81
ffffebbb
ffffbc8c
ffff9511
00000880
00004c4d
ffffb9f7
000005f5
ffffcae9
00002efe
ffffcaa4
ffffe557
ffffbe91
ffffa6b1
ffff9e1c
ffff777b
ffff9d1b
ffffb960
ffff9b8f
ffffade1
ffffe4f3
fffffc5f
ffffdf35
ffffd2e6
ffffce6d
ffffde60
ffffe426
fffff2d6
0000138c
fffff944
ffffbdfa
ffff9784
00001975
ffffee26
ffffd933
fffffbb7
fffff936
0000394f
fffffc47
000032e9
fffff457
ffffd663
ffffe264
ffffbfd8
ffffec17
ffffd88d
ffffca7a
ffffd1aa
ffffd4ef
fffffd47
ffffed49
ffffdaf3
ffffe4a0
fffff71e
fffff934
fffffc87
00003297
00003889
000006d5
ffffc7f0
ffffdd82
ffffd992
00000041
fffff57c
0000025c
00004819
00001c4f
00003beb
00000e19
00001a94
000014ee
ffffff7f
fffffebb
00000403
fffff9ba
fffff6f5
ffffe66b
ffffe581
fffff7fd
ffffecd1
fffff109
fffff8aa
ffffd88b
000006e7
0000264d
0000225f
ffffd0c6
ffffe5be
ffffd722
ffffc121
000005fb
ffffea93
000017ff
000025d4
00002ae8
00005dc1
00003d9b
00003bc0
0000351e
000025ec
00000a10
00000fb3
0000194f
ffffefa5
ffffeeb1
ffffef06
00000c03
fffff8e1
fffff235
fffff443
000005de
0000182a
00000955
00002035
ffffe28e
fffff144
00001695
fffff6f2
fffff530
0000014f
00000479
0000390a
00001024
00002d82
00002085
000011ff
00002988
00002456
00001d31
0000123e
ffffff29
ffffda41
ffffee4d
fffff09a
fffff827
ffffe906
ffffdf30
fffffe06
fffffbad
000008ae
000012fc
00002480
0000185c
ffffeafe
00001a0b
ffffdafd
fffff92b
fffff7d6
fffffbcf
00002273
00002e56
00001895
0000378e
00002f1f
00003770
0000274f
000027bc
0000250a
00001071
ffffd0ac
000000d8
00000a14
ffffe594
ffffe560
ffffba3d
ffffddd0
00001345
00003f31
00003d1a
0000384f
00004794
ffffab18
ffffe9cf
fffff828
fffffe87
00000436
00000023
00002689
ffffd678
00003eda
0000a704
00000ef2
000009d4
00003d3e
00004a0c
0000350c
00000e40
0000120a
00003976
00001392
ffffd5b5
000003e1
ffffd3a6
00001e3e
00004038
00000343
ffffec8f
ffffbad0
ffffdc2c
ffffadd9
00000683
ffffeeb8
000003e2
fffffdfd
fffff8d4
0000072e
00000a47
00005b98
00007ec2
00008a96
00006404
00004287
000042d0
00005847
00003cf3
000011d4
000031eb
00004a72
00000cc7
000014dd
00002d44
00001cce
ffffd6e2
ffffebd1
0000396e
000012ee
00003012
0000413b
fffff5f8
000006af
00000158
fffff79a
fffffa0a
0000061e
fffffcee
ffffd5cd
ffffc3b2
fffff9bd
00001b43
0000039e
fffff8fd
ffffeddb
ffffee6e
fffff454
fffff4da
000000ea
000027d2
ffffffa8
ffffe298
00001467
00001928
00000794
000042db
00003a8c
ffffe826
fffffe79
000006a9
fffffd57
fffffadd
fffffcae
fffffa22
fffff7a7
00000848
0000073d
00000346
fffffc24
0000087a
00000528
fffff9f1
fffffd1e
000001ac
ffffee06
fffff996
00000cb7
00000024
000006e4
0000012c
fffff824
fffff91d
00000873
000008ea
fffffe36
00000617
000006ec
fffff76a
fffff88e
fffffaa4
000006dc
00000067
fffff893
fffff7d8
fffff628
ffffff3e
ffffe94f
fffffe14
00000803
fffffb3f
fffffd2a
ffffef86
ffffc3aa
ffffddae
ffffe311
ffffde8c
00002f6b
0000273c
ffffec9a
ffffcce8
ffffb57d
ffffdd40
ffffef1f
ffffeddd
fffffdcc
00000647
fffff966
00000547
fffff86c
000001bc
00000612
ffffc2c2
ffffac51
ffffff66
ffffef1f
fffff5a6
00002fa0
00004615
00000f7d
ffffeb11
00001a3f
ffffd4c9
00000c7e
000000de
fffff809
fffff75a
00001018
ffffc790
ffffc825
ffffff31
fffff036
00002497
00000df9
0000191a
00000837
000000d6
000002d7
fffffd99
ffffcfc4
ffffc509
00003d1f
00002667
00000821
ffffd47b
ffffd449
00000e29
00000880
000016f5
000012dc
00000f2b
00001906
00003760
000025d4
ffffffa7
ffffff2e
fffffb18
ffffcd35
00002799
000019f0
000040df
00001717
00002dae
00000d43
00000362
fffffdd1
ffffff24
ffffb58a
ffffbf69
ffffa2c3
ffffea31
00000b76
0000196b
ffffd5ac
00000e8e
00002b6e
000015dd
00001700
fffff6bd
000012ac
00000d9b
00001592
00000f5f
fffffc93
00000a9c
fffffbb9
fffff201
ffffdd9d
fffffdca
000040a9
000061c6
0000522b
00001d1e
000004b2
fffffbdd
ffffd38f
00000c6d
00000024
ffffc4bf
fffff411
00000643
0000025e
fffff45d
0000094e
00002979
000022cf
00000421
000012b2
000003e4
00001cca
00000d48
fffff7cb
00000dc8
00001f1f
00001757
fffffea9
ffffe076
fffffa62
0000533a
000055ad
00001e7b
fffffdfd
0000105b
00000400
ffffff3a
000000e4
fffff14d
fffffa5c
ffffe2d4
fffffc3a
00000ece
00000073
000009eb
00000c90
fffff857
ffffff7a
00000afb
000011c2
fffff310
ffffd792
fffff6e4
ffffe18d
ffffd30b
fffffb46
00000e17
fffffe52
00006311
000031c1
000014c2
fffff5fa
0000107e
000011b7
00000252
0000108b
000009ef
fffff992
fffff75b
00000b5f
fffff955
00000752
00000572
fffff129
fffffb5b
fffffa5c
fffff2cd
ffffe58d
ffffdc6a
ffffddc0
ffffdb1a
ffffd2a6
ffffe283
fffff4d6
ffffcdbf
fffff625
00004381
00004bd0
00000136
000024a2
fffffc29
ffffe051
00000225
fffff677
ffffef92
ffffe8d0
0000008e
ffffe712
ffffff6e
00000303
fffff526
fffffbcb
000004ea
ffffff53
fffff630
fffff575
fffff6fa
ffffe8a4
fffff1e3
000015b8
ffffe3c3
ffffd336
00000e1d
fffffe22
00000dd7
00004670
00002619
fffff938
ffffb587
ffffffd7
0000237a
ffffc9f2
fffff70e
ffffe6fa
fffff862
00000635
ffffebab
ffffd906
fffff62d
000006e2
000008c4
0000140a
fffffa9c
fffff884
fffffeb6
000004a2
00000076
00000a2a
00000b62
fffff005
00000156
00001403
00002626
000016e3
ffffc9ce
fffffd49
ffffd0a3
fffff0e7
000002e4
ffffe419
00000311
0000050f
000003a9
fffff5b2
ffffea82
ffffea0a
fffff2f6
0000321c
0000188d
00001352
fffff694
0000021e
000005e6
0000060e
fffffed5
fffff6eb
00000667
ffffe5f8
fffffbdf
00003282
ffffcf06
0000261e
ffffcf0b
ffffeb6c
00004588
ffffaf3c
ffffe91e
0000053d
0000062f
00000f47
fffff980
fffff08e
ffffe003
ffffce26
000004d3
00002a5f
000002ff
fffff4f4
ffffee72
fffff808
fffff421
ffffec38
000006cb
ffffdb95
fffff80b
ffffe1d5
ffffe95e
00001c63
0000469f
00004aec
ffffca33
fffff86d
fffff655
ffff9c86
fffff8b1
fffff851
fffff095
ffffeb35
fffff058
ffffda7e
ffffd15a
00000b93
0000161c
0000301e
00000bb0
ffffdc0a
ffffe2b2
fffffbd1
00000e13
fffff58c
00000078
00000063
0000019c
000003ce
ffffb990
00002952
00005380
ffffeb11
ffffc457
ffffdb29
00000045
ffffb752
ffffece2
ffffcac5
ffffedbe
ffffe81a
ffffe4b8
ffffe4a3
fffffed0
00001381
00003458
00003c63
00001a1e
fffff8d8
fffff769
fffff49f
0000124d
000006db
fffffbca
00001384
00000d8d
00001092
fffff2fc
00000343
00002cb8
000051bc
000030cd
000013c5
fffff908
ffffe488
fffffec8
ffffb6fb
fffff942
00000ed4
ffffe5d9
ffffe63a
ffffe42c
000019f1
00002ae7
00003472
00001313
fffffc0e
fffffee9
00000a73
ffffff3a
fffff7a8
ffffedd9
ffffdea8
ffffe4a2
ffffdc9f
ffffeb2d
000003f9
00005110
00005154
00001165
00001b94
fffffe90
fffffe6f
00001853
ffffeb6d
fffffb6b
0000100a
fffff9ed
ffffeaae
0000106a
ffffffff
00000ae9
00001936
00001313
00001e79
00001267
00001fda
ffffebbc
ffffef04
00000234
ffffdcfe
fffff017
ffffe974
000006b6
000023f1
00004718
000012eb
00004049
ffffe92a
fffff7e8
ffffef59
00001f72
fffffc1f
fffff460
00000ee7
00002148
00001294
00001d92
00002144
00000316
00000fb0
000007b9
00002c57
00003af0
000017bd
000011fa
fffffd2e
ffffffec
fffff2f4
0000217d
00000f38
00001bb3
ffffe90b
00006123
000037a9
000038c2
00000576
ffffeb04
00000e91
000016fd
00003790
00000a5f
00001d03
00000915
00000b38
00000e9f
ffffff6e
0000214c
00001141
ffffff9f
0000033e
0000166f
00000fdb
0000140e
000013ba
fffffaf5
fffffea8
00002885
000025a3
00000065
ffffdf41
00001cc3
ffffeec4
000023e0
ffffbc26
ffffdc6b
ffffe9df
00001eb7
00004a0b
00003f54
00002d5a
00001009
00000393
00000259
000004f3
fffffa38
000005b8
000003e0
000004c2
0000139c
00000b6f
000002c9
00000934
fffffd32
fffff23f
00000c7c
0000077f
00001508
00001b53
fffffc48
fffff0a9
00003225
fffff9f1
ffffbc11
fffffe0e
00001364
00004ec5
000020cc
00000063
00000aae
fffffd7b
fffffdd3
0000183e
00000ef3
fffff771
00000a9b
00000a39
00001180
000000a7
00002865
00000fa7
ffffe8e3
fffffa45
fffffa17
00001363
000020df
ffffc8f6
ffffebbc
00003580
00002643
fffffa14
ffffd817
00004497
000032d8
00002293
000020f7
00000a5b
00000bcc
000017df
ffffff99
00001249
00001429
fffffc0b
0000150d
ffffeb0e
00001efc
000009ec
00001642
00000913
ffffea10
000005cb
00000aa3
00000d67
00000876
ffffbd98
fffff1bf
0000072c
ffffebca
fffff217
0000048e
00001b8f
00000ec5
00002f6a
0000180a
000014b9
00000e44
00000066
00001758
00000f0c
00002a95
00001534
000019c7
00001f0d
00000f34
fffff7b3
00001b74
fffff21a
000005ab
fffff2a8
fffff167
00001c88
00002c8a
ffffcf3c
00000a11
0000567b
fffff2a7
ffffe6df
fffff0cb
00001a7e
00000a5c
0000185c
000003f8
000003f1
00001668
ffffecfb
00000190
00001579
000030ed
000025a7
00002005
000002b7
000012fa
fffff442
fffff22b
ffffe7cf
00000b32
ffffebdd
fffffdd7
000015fb
000028e8
fffff428
ffffd59b
fffff38b
fffff432
000003c2
000002d7
000019d5
000036fe
000059d6
00001665
ffffec61
fffffa15
00001668
fffffe6c
00001413
00000fb4
00001117
00000295
00000ef0
00000ec1
fffffd5a
ffffdbff
ffffed03
00000dd8
00001891
00000bf0
00002939
00002f53
ffffe17b
ffffe098
ffffcca6
fffff7ec
000007df
00000121
ffffe554
fffff071
fffff900
ffffceac
ffffd741
ffffc70d
00000514
000006d5
ffffe029
fffff5b8
00000615
0000146b
00001df3
000004ff
00000d90
ffffd73a
fffff962
00000043
00000260
fffff155
00000d33
fffffcc1
00002623
fffff6e2
000004d3
00000464
fffff71a
fffff995
ffffe41a
ffffeb24
ffffc1cd
ffff8fca
ffffcd89
ffffbf2b
ffffa146
ffffd5de
ffffddd4
ffffc00d
ffffba77
ffffb351
ffffd540
00001ce5
fffff55e
ffffee09
ffffefed
ffffec8e
fffffa7b
00001623
00001ae7
0000335b
00002054
ffffed1b
00000285
fffff753
fffffcf6
00000654
fffff8ef
ffffcc83
ffffdb37
ffffcf3c
ffffad68
ffff69e0
ffffe3b6
ffffd6b8
ffffd765
ffffcbf9
ffffc8b5
ffffc0d9
ffffa205
ffff9de7
ffffcf6c
00000735
000010d9
ffffec3d
ffffda16
ffffcd23
ffffe6e9
ffffc92a
ffffcf41
fffff851
fffffe78
000000a1
fffff952
00000694
fffff97d
fffffd1d
fffff88e
fffff19a
ffffeae9
ffffe4db
ffffdb64
ffffd68b
ffffa698
ffffb1ad
ffffc822
ffffae6e
ffff6ce8
ffffd6d4
ffffdf7c
fffff014
fffff310
ffffdd36
ffffda76
ffffe9be
ffffe6ba
00000748
fffff99d
00000156
000004c6
fffffa3d
fffffa78
00000500
fffffc05
fffffdbc
000002d6
fffff7cb
fffffac5
fffffbcf
00000881
00000838
00000829
00000542
00000b5a
00000dc7
ffffe7c9
00000280
00000197
fffff78c
00000924
fffffa0e
fffffbeb
ffffffd3
fffffa92
000002fe
fffffe4e
fffffe4d
00000296
000007ff
000007b7
000002f4
000008cf
00000901
00000a63
000004ee
00001200
000013ab
00001414
000005f1
00000978
fffffb74
00000763
000025e1
fffff029
ffffd25f
ffffe89f
fffff3db
00001c18
00002b6a
00004b20
00002739
00002c22
0000203a
fffff745
000001f2
000003fa
fffffa00
fffff6e7
000008a4
00000123
ffffc425
ffffc8d5
00001233
00000bbf
0000221a
00003554
0000231f
fffffaee
000019e2
0000130c
fffffc47
00002f62
00000712
ffffee7c
00003ee0
00002e1a
ffffe0f3
fffff45e
00003863
00004114
00001d50
fffff797
ffffe78b
00000903
000008c2
000006c9
0000065b
ffffbf24
ffffc8a9
ffffee71
00005961
00006774
00006866
000040f4
00001b7f
ffffe985
fffffb82
fffff395
00001726
0000295a
00001c2a
fffff6a6
fffff2a6
0000042e
ffffed2f
ffffc565
000015d9
0000019c
0000322b
00000a5a
ffffd343
00001bd1
00000705
fffffe04
00000186
ffffc9d1
ffffea12
00000909
0000058c
ffffe8a4
fffff169
ffffe93a
ffffebc4
fffff647
ffffd952
fffff759
ffffc9df
ffffeeb4
fffff6b8
fffffb72
0000112e
00000ef4
00000ae8
00001620
00005286
00001aca
0000282c
00004423
000026e8
00000404
00003343
fffffbd7
000002d4
fffff46f
000006b3
ffffff88
ffffa6d8
ffffb909
ffffe818
ffffc16f
ffffdf97
fffffa0d
ffffe89a
fffff76c
ffffd6ab
fffff4a3
ffffcf1a
ffffea52
00000e9c
00000e23
00001ecf
00004459
0000270f
ffffef3e
000017b3
00002784
00004793
000037cc
00003486
ffffff4e
fffff8fe
000032b1
ffffb7f8
000004e1
ffffcaa3
ffffe4ed
fffff501
ffffff73
00000ae7
ffffeda2
ffffe594
ffffe7f8
ffffe161
fffff85b
0000061b
ffffffe3
00000a0d
00000573
00001289
000003a5
ffffe2a7
fffff113
00002d07
00002bde
0000204e
00002d28
00002940
fffffaac
ffffedee
00002ad9
ffffc4fa
00002811
00001e29
00000a69
fffff73c
000039ec
fffff5d6
ffffe3f0
ffffe7a6
fffffdfe
000008c2
ffffffb3
000005b9
ffffeebc
fffff013
ffffe2df
ffffe7ee
ffffe443
ffffd895
ffffe875
ffffd1de
00000541
fffff639
000053b9
00002c5d
ffffaa9d
0000090d
00003212
00001662
000024a6
fffffa6e
ffffed12
00000356
00001443
ffffe1c5
ffffbd10
ffffe0df
fffff573
000001fe
fffff006
fffffa98
fffff240
ffffe23e
ffffef79
fffff0e0
ffffd94b
00000253
ffffe39f
ffffdcad
00001ed0
0000529d
00004d3f
0000035f
fffff892
ffffbb52
00003144
00001049
fffff9c1
fffff84e
fffffd0c
00000c82
fffffa07
fffff5af
ffffbf5d
ffffd281
fffff49f
ffffe958
fffff1f9
0000119b
ffffff01
fffff3f6
fffffdfd
00000f86
fffffc70
000017fe
ffffdcdc
fffff50a
00001fff
00004947
000013fa
ffffccdb
fffffda6
ffffc777
ffffe18a
000027e9
00000cf4
0000119c
000007b3
00000ffe
fffff639
ffffe9fb
ffffe841
ffffda3d
fffff0d9
ffffbdb4
ffffea61
fffffd13
ffffc011
ffffd900
fffff4d6
fffff67a
ffffe4c0
ffffef8f
ffffd969
00002645
000027f1
00000773
fffff23b
ffffc3e4
fffffbc6
ffffb574
ffffd33c
00000191
ffffee23
00002138
000022ad
fffff841
ffffff5d
00000af1
00000f6c
0000046a
fffff468
ffff9978
ffffa361
ffffb2b0
ffffb5aa
ffffd1c9
ffffdc63
fffffbd9
ffffe2d1
fffff62c
fffff1c5
000008d4
ffffeff2
00000793
000030de
ffffb3e9
fffff692
fffff588
fffff09c
ffffe3e9
fffff1fa
000006e8
00001240
00000c25
fffffe90
000006da
000015fc
000024f5
ffffecf0
ffffce31
ffffaef2
ffffbcf1
ffffdd53
fffff353
ffffe31d
000005d4
000006b9
00000a76
ffffeebd
000012ff
ffffec41
ffffc334
ffffa508
ffffafaa
fffffe49
fffff98f
ffffd633
ffffdcf0
ffffe9fd
0000199b
0000128c
00002ba2
0000011a
000008d9
000017b0
00000bd7
000017aa
000018e9
fffff6d9
00000329
00002f02
00000df1
fffff564
0000161b
0000142e
fffff184
ffffdc87
000012b8
ffffddf1
ffffa72c
ffffb22d
ffffe600
00001620
fffff3b0
ffffc2d5
fffff63e
fffffbbf
00002b09
00003f2a
00002077
000006cf
000009a5
00001a88
000013be
00001187
00002034
00004184
0000444a
0000410a
00000e93
0000071b
ffffeb4d
ffffef9a
ffffde1b
ffffebd1
ffffe90b
fffff05d
00000ba8
ffffc214
fffff352
00000f20
00000b69
fffff27a
00000e87
0000227c
000037a8
00002c2b
00001bc1
0000150e
0000072f
00000b21
00000d6f
00002cdd
0000358f
00003cec
000038ad
000040a2
000002eb
fffffc68
fffff613
ffffc46a
ffffd8e1
000000d9
fffff1dd
ffffd9ee
00001e2b
00000360
fffff1ca
ffffff33
00000aa2
fffff5d1
000027a1
00000c42
00003101
000022f3
00001832
00001472
000014f9
00000c0e
0000249d
000040ec
0000244a
000020c2
000025f7
00002524
000006a7
00000992
fffff55d
ffffdf07
fffffe05
fffffd46
ffffe365
ffffd1fd
0000433a
ffffdd0f
fffff1de
fffffdba
fffffa4c
00002c37
0000030a
00001741
000022f3
000028d2
00001bb4
0000318d
00001080
00000dda
00000f6d
000006c6
000016cc
ffffff72
fffffc24
0000179c
fffff17d
fffffd9f
fffffab7
ffffebc6
00000980
fffffec4
ffffd904
ffffa33f
ffffd9a0
ffffb995
fffff40a
ffffea97
00000172
00000b4b
00000ffb
00001b21
00002554
0000436b
000023c5
000005ac
fffffd86
0000064e
000002c0
00002ee8
0000312d
000016dd
fffff8cc
ffffff2b
ffffe41d
fffff1fe
00000bcc
000026e5
00002477
ffffec1f
ffffcee3
ffffd283
00003670
ffffbf0c
ffffe763
fffffe15
ffffe1c8
fffff88c
000047bf
00004ab0
0000471f
00001044
fffff6e2
fffff523
0000031e
00000a58
00000e83
000016c8
000021a5
00001d2e
ffffe9b0
0000079f
fffffbef
000023e4
0000153a
0000202d
00000c39
ffffde54
0000126c
00000abe
00003c5e
00000568
ffffe03d
fffff9df
ffffee50
000018ee
00002380
00002be1
00002358
fffff52c
ffffebd7
fffff3c7
00000811
fffffe85
ffffe5d6
ffffe603
000005b7
00000a51
00000dd6
00000c2d
fffffd4a
00001a17
00001202
00001ae0
00000cb6
fffff985
00004989
000014e8
000064db
000017ba
fffff0c1
ffffed08
000008d2
000036dc
ffffe795
000026d1
fffff26e
fffffbcc
00000ac3
0000128c
00001346
ffffe479
ffffe61c
fffff916
000007a2
00001294
00000a12
00000921
00003cde
00000b27
00000e4b
00001a31
00000bc2
00004eb7
00006ae5
00004316
00000f47
ffffbe63
fffff2e4
ffffe985
fffff1c1
00002380
fffffe68
000005d1
ffffad40
ffffaeb0
ffffdb96
ffffd187
fffff0f4
00000218
fffffbeb
00000437
ffffecf6
fffff444
0000064d
00000cc7
00001ac5
00000f9c
fffffc4b
00000a77
00003c62
00003d05
00005557
00003c0f
fffffd01
fffff287
fffffe6c
fffffc1b
fffff8f0
00000ec8
00002bce
00002ce5
fffff077
ffffc802
ffffaba4
ffffe155
00000116
000018a5
00000e35
ffffed1e
fffff8f7
000009e0
00000313
00000972
fffffc16
000027ac
000024aa
00002fd2
00007166
00004fb0
00006b77
00003b37
00001800
fffffcb5
fffffbd6
00000860
fffffc7e
0000021f
00003ef1
000016fc
00000d39
ffffdc9e
ffffe151
ffffe5d7
0000196c
00003201
000030c9
0000005d
000000b2
00001684
00001205
00003b42
00001359
00002e4c
00000f2c
00002797
00001e65
000024c1
000037ff
00000bde
00000a14
ffffe6c0
00000291
000007ee
fffffe93
000019a4
ffffd412
fffff34b
fffff620
fffff4e2
fffffc96
fffffdc9
fffffa20
0000014c
000009ad
00001c03
00003ec6
00001f3e
00002afe
0000214f
00002976
000030cb
000027ff
00003351
00001a62
000021d6
00005443
0000107d
fffff418
fffffdd2
fffff6fe
00000447
000006d5
fffff80c
fffffb54
fffff09c
00001176
00003567
00004759
000036c3
fffff4ad
ffffe8b8
00001695
00003cc4
00001f52
00001001
00000721
fffffd8e
ffffeec7
ffffcc8a
ffffd2e8
fffff99d
000009c3
fffff4c8
fffff4cb
ffffdda8
fffffd83
fffff7db
fffffbc3
000006d2
00000345
fffffe6a
fffffbcd
000002a6
fffffbf8
00000adb
000008f5
0000049c
000019bf
0000129b
000020ca
000020b8
00000816
ffffd1fd
fffff559
ffffd2cc
ffffc388
ffffe872
ffffffaf
ffffe869
fffff1fc
ffffee6d
ffffdc5f
00000689
0000060f
00000923
fffff982
000002a6
000007e1
fffffbea
00000322
000006f8
fffff80b
00000679
fffff9e8
fffff843
ffffffa9
00000521
0000084a
00001675
00000ef6
000000fc
00000624
fffffb3c
000005f6
0000013d
00000805
00000277
000003cd
fffff7df
fffffc28
fffffd0e
000006d6
fffff722
00000753
00000189
fffffb03
fffff99f
ffffff0a
fffffadd
000008e7
ffffe92c
fffff9ed
000004d7
00000c75
00001326
00000225
0000112b
0000335b
000011b0
ffffe685
ffffdb43
fffff34e
000021a6
ffffffb1
00000052
fffff6c3
fffff35a
fffff84b
fffffb93
fffffa45
fffffcc3
000001a7
fffffe43
fffff906
fffff78d
ffffe4c1
ffffefc3
00001141
00000471
00000737
000004c9
00000081
fffff2c1
0000126b
00003dad
00003d95
00004d8f
000021d9
000002f9
000069cd
00006d6b
00000176
ffffdfd2
fffff22f
00000dd6
ffffdd83
ffffed99
fffff26b
00000699
fffff88a
000005a0
0000071c
ffffd862
ffffeaf1
fffffa26
0000250a
00000b43
ffffe810
fffff502
ffffdd63
ffffef92
fffffa5d
ffffe1c8
00000578
000006d3
00000468
00000a63
00000537
fffffd31
ffffc60c
ffffca1c
00003c67
00002e32
000078ab
fffffd82
00000ee0
fffffb23
fffffb53
ffffff25
000004fd
ffffd00a
ffffd34b
fffff51e
fffff6b0
ffffbcd4
ffffb0f5
ffff9395
00000aa8
00001973
ffffff2a
ffffdea3
ffffb983
ffffdf01
fffff69a
000031e5
00003bd3
000021f4
000022db
00001b73
fffff2e4
ffffed08
00003c8f
000052cc
000043d6
00003d9d
00002c47
fffffbcb
fffff760
ffffdfbb
ffffe867
ffffd7b2
ffffd8c3
ffff82b8
ffff7fde
ffffdbc2
00000c8b
000007ce
00000f39
ffffee35
ffffd2dc
00000956
ffffcf00
fffff9c0
fffff24f
ffffeff1
000008cf
00001541
fffffbfd
ffffefe0
ffffe70f
0000230e
00004e3b
000051c7
00003211
fffff90d
fffff9cf
000035a1
ffffcb1f
ffffc537
ffffc82a
ffff871f
ffffabaf
fffff954
fffffd87
ffffdde6
ffffe0be
ffffe5d7
ffffe8ea
00000090
fffffd78
ffffe68a
fffff34f
ffffe219
ffffee54
fffff39f
ffffcc65
000013c9
0000274c
00002469
00000e71
00004489
00001d52
fffffa62
ffffc865
000036bc
ffffc63b
ffffc742
000001f4
ffffc9f4
ffffb218
000006c8
00000b3b
000001bc
ffffd5b3
ffffdf25
fffff396
fffff6ee
00001ba1
fffff7e6
ffffee27
fffff9f8
0000191e
00001c27
00002e20
00004939
000038f8
ffffea25
ffffb81b
000064b3
000017d2
ffffd1bf
ffffdd9e
00000d47
ffffdb6e
000002e2
fffffd60
00000e3f
000001e8
00001c68
00001d7b
fffff846
fffffada
ffffed00
fffffa50
fffff8de
00000bd7
fffffd58
ffffe713
00000659
0000132b
00003683
00004e08
0000270b
00001c35
fffffc20
0000028d
00005417
00001f39
fffff695
ffffcc47
ffffe91f
fffffa2b
ffffeea9
ffffc0bb
00000853
000008d5
000018b4
00002d0b
00001350
000008e3
ffffd703
ffffdcec
ffffd626
00000755
00000f4f
ffffe91c
fffff7b8
00001386
00000a08
000018b7
00000adc
000025bf
00004143
00002f57
0000322c
ffffe7d9
fffff8cd
ffffe973
ffffb098
fffffcd7
fffff2f7
ffffe202
00001263
00001689
000015c0
0000474d
00002da4
fffff47a
ffffcca1
ffff8613
ffffc84d
ffffeec4
ffffb135
ffffbc04
ffffdf9e
ffffeff5
ffffcc08
ffffd739
fffff368
0000119a
00003625
fffff15e
00000790
ffffe551
fffff9c1
ffffc209
ffffd574
ffffb6cb
ffffc29e
fffff4eb
000013a1
00000616
0000098a
00004178
00003904
0000228a
00000e0a
ffff9bc5
ffffa65b
ffffb254
ffff9623
ffffa917
ffffbe9a
ffffc4df
ffffb9a0
ffffe81b
ffffe216
fffff78e
fffff3c0
00000da3
00000ecd
ffffc3c2
fffffea8
fffff018
fffffcaa
ffffb79f
ffff863b
ffffd441
00001b8d
00001e7d
00001163
000023d6
000032de
000058d2
0000534b
fffff22c
ffffb863
ffffd3f0
ffffe28a
ffffcfcb
ffffd773
ffffdaec
ffffe40c
fffff901
ffffed75
fffffaae
00001829
ffffe99d
ffffd078
ffffab41
fffff5d3
fffff49d
fffff558
ffffb70c
ffff7c36
ffffc749
ffffe973
000015a3
000008c3
00004497
00004b14
00004daa
00005c9d
000018b2
fffff58b
00001b42
00001da9
fffffff7
0000045f
00000626
00001cef
00001800
00000e45
fffff9a2
ffffdb48
ffffe200
ffffe178
ffffe34e
000015e5
fffff29d
fffff35b
ffffd683
ffff8b48
ffffee18
fffff014
00000201
000000d4
0000149f
0000255d
0000287c
00002117
00000ab9
000022b1
00000eb2
000024fc
00001c5b
0000019e
00000d10
00001fa7
0000220b
0000081c
000005a4
0000125a
00002fdf
ffffc6f4
ffffe56e
00001731
fffffe5d
0000067c
00000b32
ffffc1a1
00000186
fffff0d6
fffff17b
00000bda
000014a3
00001411
00001286
00002c05
000007b6
000008a9
000001a5
00002fae
00001aff
00000004
000000f3
ffffe927
ffffeff8
fffff1cd
fffff0d6
ffffe7e7
ffffd439
ffffbaf1
ffffde39
fffffc5b
fffff6d6
ffffdfdd
00001677
ffffdc31
ffffdb5d
ffffe383
ffffd51a
ffffe7bc
ffffef16
fffff4a7
00000aab
000038b1
0000191c
00000bbd
00001dea
00002ffb
000013ca
fffffcba
fffff888
ffffd30d
ffffd415
fffffd64
ffffe499
ffffe0f6
00001d98
ffffa5d4
ffffd969
fffffe73
ffffeb1a
ffffe15c
00002221
000018c3
fffffc69
ffffdc78
ffffb4b1
ffffcd2e
ffffe7a2
00000fd9
00002b04
00003933
00001fa6
00000ec0
00001c54
00002669
00000193
fffff520
ffffe82f
fffff5c5
ffffef61
0000079c
ffffe34c
ffffffb7
ffffdac4
ffffa3d0
fffff5bb
ffffc985
fffffd32
ffffd2f5
00003150
000007df
00002070
fffff5ec
ffff9fbf
ffffe0a2
ffffeed1
0000066f
00000fcd
00003bef
00003077
000024f5
000009f3
fffff95e
ffffdd1a
fffff349
fffff357
fffff747
ffffe5f1
ffffe405
ffffbad1
00002c7e
00000b30
ffffb377
ffffe0e5
00000117
fffff072
ffffbcc9
0000247d
ffffc9a6
fffff26f
ffffe449
ffffbe91
ffffe179
fffffc7e
00000637
fffffa05
00002046
00003826
000029a7
00000568
ffffecdd
fffff814
00000c5a
0000215d
00000b27
ffffdd66
ffffde60
ffffe861
00004c58
fffff6b6
ffffd221
ffffe303
fffff881
fffff061
00000937
ffffeb04
ffff8a12
ffffebe1
ffffefa1
ffffe400
000001f2
00000056
fffffb2e
00000bd8
00001831
000021b0
ffffec32
0000121f
fffffa74
000002a7
0000162d
00002b25
00000989
ffffe797
ffffe183
fffffd53
000039c7
ffffffc5
fffff97f
fffffe73
fffff1a7
00000190
00000a04
0000011d
ffffa75d
ffffeaae
fffffbc6
00000615
00002b71
000032f6
ffffe182
fffffc51
00000286
00002223
fffff9fb
0000061d
ffffd988
00002079
fffffc06
fffffd20
ffffe623
ffffe24c
00000b3d
0000141a
0000172d
000018ec
ffffcf01
00000451
fffff942
fffff65a
0000139a
00002785
0000023f
ffffe2b6
ffffe353
00000856
00002283
00001bdc
fffffeff
fffff47d
fffff952
0000039d
00000657
00000e13
00000e13
00000c02
0000107d
00000b16
ffffe24a
ffffddde
fffff969
fffff309
00002148
000033b4
00002b6a
fffff815
0000076f
0000031a
0000051e
000021b2
00002be5
fffff741
ffffdb8f
ffffce90
00001ab9
000018b0
00000969
fffff3e1
fffff8cb
0000136b
00000ac7
fffffa9d
00001f38
00001492
00002d80
fffffd76
fffffbbb
ffffedb7
ffffe486
00000c76
00000a5b
00002e6a
00001678
00000064
0000016f
ffffff34
fffff0d1
ffffec6b
00001a0b
ffffcae0
ffffcf4a
ffffeb45
fffff838
0000071a
fffff784
00002078
00000f9d
000003f6
ffffec15
00000347
00003bd6
fffff26c
00001310
ffffdc87
fffff828
ffffee82
ffffe384
fffff187
ffffe844
ffffd788
ffffed37
fffffa41
fffff701
00000848
00001f9b
00001e0c
00000c71
ffffdd9d
fffffe4d
000010ee
000008a4
000027a1
00000761
ffffed65
ffffe6b0
fffff376
ffffe316
000025e1
000043ea
0000653e
00005b7a
00003632
000023f7
00004da6
00004711
00003961
00000e06
ffffe0fa
fffff3de
fffffb6b
fffffe06
00000748
fffffe85
fffff1bb
00003902
0000135f
000003fc
00000a77
00002160
ffffc20e
ffffa419
fffff5a7
00002f7a
fffff5d5
00000432
00001101
00000506
000036f9
000011e5
ffffa8b0
ffffc1f8
00000287
fffff187
0000181f
fffffca7
fffff67f
fffff858
00000766
000001db
00000233
fffffe61
00000389
fffff496
ffffde70
fffff767
fffff342
ffffeb45
0000043b
00000122
000024fa
00001058
ffffe292
ffffc90f
00002fdd
0000026a
ffffd003
ffffff42
00001054
fffffb76
fffff082
ffffef8e
fffff868
fffff80a
fffffac5
00000295
00000339
fffffb02
fffffa5c
fffffb15
0000069e
00000252
fffff828
ffffff59
fffffd7a
ffffffcd
000000c2
00000636
fffffa1b
fffffe44
fffff08c
00000659
000008b8
fffffbe7
fffffb1a
fffffc9e
00000746
fffffb7b
0000076b
fffff774
0000063a
fffff738
ffffff7f
fffff792
fffffb83
fffffa30
000001dc
000004b1
00000883
00000382
fffff82d
ffffe7e9
fffff09a
fffff2c7
ffffd617
ffffd08d
ffffc056
ffffa703
ffffac6f
ffffd862
ffffc8df
ffffe3df
ffffca40
ffffd435
ffffcb0d
ffffb186
ffffe30b
fffff601
fffff712
00000715
ffffff72
fffff8d6
000006bd
00000104
0000068f
fffff533
ffffdd63
ffffdae7
ffffc3d5
fffff456
ffffe762
ffffd7f0
ffffeed0
000005d9
ffffca91
00000f1e
00001b26
fffff6ec
ffffe7d1
ffffe168
ffffe875
fffff905
ffffeb26
ffffcd5a
ffffc273
ffffdb1d
fffffec8
00000150
00000e91
fffffd8c
000008fa
00000624
fffffbd0
0000344c
00002cae
00003261
fffff567
0000200e
000037d1
00007139
00004f2b
00005fe6
00001568
00004369
000008d1
fffffb3e
00004ed7
000023f5
ffffdafa
ffffc112
ffff9c9b
ffffd7c6
ffffcb32
ffffad58
ffffeb02
00002efc
00001093
ffffd72b
fffff783
000001c4
fffffdbc
00003757
0000623b
0000101e
ffffcc04
000029ec
0000656b
00001e8f
00002963
00003d35
000032c6
000038c5
00000aa9
0000248c
00001cbe
fffffbca
000005be
00002167
00000ecc
00000c7c
fffffd2a
ffffd65a
ffffd042
00004a42
00002ce3
ffffef15
ffffde95
0000081b
fffffc6d
00000d0b
0000394a
ffffd16c
ffffdacd
0000057e
000023cd
fffff11c
00001bde
00002f7c
00003e7c
00001882
fffff6ff
ffffd153
ffffeca3
000012b7
00002b59
0000297f
000009ff
0000124b
fffff403
ffffe56e
ffffea21
fffffd92
ffffedf0
00000d92
ffffd502
00000114
ffffe286
00002c6a
00000c7a
fffff87f
ffffcc7f
000015c9
0000232f
00002840
00004e06
00002c87
000026fa
00000f59
00001496
0000215c
0000168c
00002198
00001d50
000017f9
fffff7f1
000011f9
fffffd34
ffffe8e7
00001981
000037a1
00000ae5
00002c24
ffffdee3
fffffd8f
ffffbbfb
ffffebd9
00000668
ffffec47
ffffea64
00001564
ffffee40
00003708
00000db4
0000072b
000024ee
00002fed
00002c34
00002547
00002801
000008a5
ffffec96
ffffd992
fffff86a
00000e40
fffff529
ffffe440
fffff3fe
ffffd3be
ffffe240
00000b07
ffffef07
ffffc4fc
ffffdab8
ffffd916
ffffdac7
ffffccb6
fffff371
000005b5
fffff07c
00001e9a
00000202
00001126
0000388c
00000709
0000259a
00002196
00001e01
ffffe404
ffffe501
fffff637
000006c5
ffffddd0
fffff17d
ffffe698
fffff12f
ffffc2fd
ffffeb23
fffff720
00000e97
fffffb22
ffffd99c
ffffc36d
ffffe50d
ffffd875
00001e75
000019e2
000007c0
000030fe
000007bd
00001067
00001754
000014b3
0000177f
00001a44
000022d2
fffff6ca
fffffd32
000017ea
fffffed8
ffffccca
ffffe317
fffff9e6
ffffca68
ffffeaaf
00002491
ffffe0c5
000007e8
fffff574
ffffdf14
ffff9796
fffff14b
fffff020
00000ce7
00000005
0000149d
00001f2a
ffffe8b4
000006c3
fffffa55
00000840
fffffb4e
00002d52
fffffac1
00001c3b
000011ff
00000827
000000ff
ffffef24
ffffeeeb
ffffc4e2
ffff8d69
ffffcfeb
00001bd8
0000073c
fffff10c
ffffedb5
ffffd581
ffff924b
fffff6cd
00000762
ffffded8
fffff60f
000009ce
ffffefba
ffffc6a2
ffffe08a
ffffe0db
0000277e
00001312
0000352c
000030d3
00003010
00002a60
fffffca2
fffff4cf
fffff11c
ffffd3a2
ffffbd0f
ffffe01b
ffffc031
0000080a
00002c37
ffffed7c
ffffeb3c
ffffe833
ffff9161
00001af1
fffffc1b
fffffe6b
ffffe82e
ffffd68c
ffffe0a0
ffffc619
ffffe96d
000003e8
00001f29
00003f21
00003730
00003524
0000257b
00001082
fffffb59
000013e4
ffffe185
ffffcfe8
ffffce01
ffffd3b7
ffff8994
ffffcf5c
000005b3
ffffeee5
00001aea
ffffe741
ffff97a6
000004ae
ffffd000
00001222
ffffc4c6
ffffe368
ffffc75f
ffffcab9
fffff189
00000b94
00002340
00003527
00002da9
00001f1d
00002d94
00000e58
ffffe9da
000006f8
fffff638
ffffd232
ffffefe7
fffff29e
00000873
ffffe384
0000112d
ffffec44
fffff5d4
fffff4f3
ffffae45
000008c1
ffffed92
ffffca6b
ffffddbf
ffffef26
ffffaac4
ffffa204
ffffc560
ffffec6a
fffff8a9
00001e71
000023c1
000008a5
00000fa4
fffff14d
fffffbab
fffff1e1
fffffd97
ffffe45e
00000813
00000c4c
000010de
000001a4
00004088
ffffea6b
ffffecba
00000f9f
fffff038
00000b04
0000294e
ffffd356
ffffe9c3
ffffbbce
ffffafc1
ffff9ebc
ffffb329
ffffd069
ffffc3c8
00000307
00001b06
fffffaf1
fffff3e6
ffffdbc1
fffff1b4
00000b73
0000059c
fffff8f7
fffff569
fffffc1e
000004a8
00002f13
0000486d
ffffe907
fffff76f
000013d3
000018c5
00003d3c
00003300
ffffdc53
ffffecff
ffffcf09
ffffd76d
ffffb138
ffffaeb8
ffffa3b5
ffff9c8d
ffffcc2c
ffffe9c2
ffffe940
fffffc75
000008c9
000021c6
0000100f
00000b1d
fffff93c
fffff806
00000696
000004b2
0000244b
00004b99
00000abc
fffffcc9
00000cf7
00000504
000045dd
00002ed5
00000884
000033a7
ffffeadf
00000641
fffff2a0
ffffc056
ffff8f67
ffff824e
ffffb1e5
ffffdccd
fffffcdf
000008bb
00003387
00003ea1
00002d15
00000724
ffffd9be
ffffbeae
ffffeaa4
00000e0f
00002389
00003756
fffffc1c
00002a41
00000f14
00000cbc
00003a79
00002ef1
000030b1
00005874
000014eb
0000272a
00003628
00000efc
00001113
ffffdb87
ffffe3ba
000019ce
ffffe612
00001905
00002419
00001023
00003f40
00001ea4
fffff5a2
ffffe445
ffffface
00002c9a
0000200b
ffffebea
00002e78
000003bf
ffffd36f
0000100d
00002224
0000038e
00002bc2
00002899
00002d22
00001ef9
00003052
0000449d
00003b0c
00002420
00000f84
ffffecff
ffffe8c9
000015ba
ffffe99a
00001bf6
00001b8d
00001236
00000393
ffffe2dd
fffff805
00000eeb
00001b16
00003336
ffffe562
00000673
ffffda1a
ffffcce5
00000273
ffffff5a
000038a4
0000114f
ffffe665
0000193b
00000670
00001908
00001542
000008b8
00001060
fffff71e
ffffed1c
00000a26
fffff36b
fffffd3a
00001280
00001165
fffff101
000005d7
fffffa83
00001917
fffff854
00001dd4
ffffff7a
fffffa93
ffffeadf
ffffe1fb
ffffc782
fffff37d
000030f6
00001799
0000044a
0000102f
000013cc
00001cba
ffffffb6
fffff470
fffffa9a
ffffea2d
fffffe49
fffff13f
fffffe6e
00001b29
000010d0
00002edb
000002e7
ffffeb5a
000027fd
000053c6
00003575
0000055a
fffffd9a
fffff733
00000136
fffff3bd
fffff544
ffffd435
ffffc02d
ffffefe0
fffff8d5
fffff87c
ffffe3a7
fffff89c
fffff6b8
ffffd881
ffffd717
ffffe1b0
ffffc209
fffffbfc
0000217a
00001ce2
00000abc
00002311
fffff3b7
00001f0d
000051cc
000061c1
00004ba3
00002e53
000003f5
fffffe26
fffffdda
fffff863
00006408
000012a2
00000180
ffffde01
ffffea47
0000090f
ffffef9a
00001272
000001c4
ffffd246
ffffcd2f
ffffd108
ffffdc33
00000422
fffffd73
00000481
fffff83f
000022fe
00002db7
000040cb
00006489
00006bbb
000039df
00003628
00000839
00000901
000006b7
ffffed08
00004d71
ffffe963
fffff6d9
00000c88
00001ee2
ffffde5a
ffffd27b
fffff587
fffff72e
ffffc91d
ffffbcdf
ffffad88
fffface0
000000e3
00001b6f
00002a52
00003d5e
000045ce
00001e4e
00002ac3
00006547
0000246b
ffffedc7
fffff405
ffffff92
000007a0
fffff849
0000101f
ffffc6e6
00001244
00004d4b
0000328d
00001e24
000007a9
000015c0
000019ca
000000b9
fffff869
000002f3
00002da6
000022ba
000027a3
00003252
000020c4
000046f6
00004891
0000380f
00002bbb
00002449
00002893
fffffe2f
ffffee9b
0000022c
fffffa53
00000809
00000078
00002692
00004c0f
00004ae6
0000315c
fffff672
ffffe420
fffff71f
00002dca
00002dac
000027e1
fffffacd
000025ba
000013ab
00002744
000040b8
000020bf
ffffd6c8
000034a1
000043ce
00001e1e
0000169a
00001f65
fffff826
000000f9
fffff92a
fffffe49
fffff72f
fffff9ce
00000286
ffffedb1
ffffea7b
ffffd410
ffffe73f
ffffe0bb
ffffd099
ffffb7f4
ffffb3f4
ffffb4d0
ffffbeaf
00001005
000019c2
ffffffab
ffffaa66
000027b9
ffffe19e
ffffe7da
fffff98a
00000008
ffffb5df
ffffff79
ffffff07
00000491
fffffbd8
fffffed2
00000333
00000807
fffffb19
ffffff5f
0000071a
fffff8eb
00000649
000008f3
fffffa04
fffffff5
fffffa7b
00000592
0000065d
fffff33e
fffffc09
00000804
fffff74e
fffffc65
fffffbb5
fffffe03
00000547
fffffe89
00000546
fffffff8
00000881
fffffb44
00000504
00000679
00000117
fffffa4d
fffff9fa
fffffdf1
fffffde1
ffffebd6
fffff0ce
ffffffa0
00000963
00000834
00002141
0000229f
00001ea2
00000c9e
ffffe772
ffffeddb
fffff2a6
00000bfe
00000415
000019d9
00000a15
fffffe6c
ffffeb45
fffff9d5
000002ec
ffffff77
000008df
fffff77b
fffffe83
000006ea
ffffd62f
ffffe36f
ffffffc6
00000a1b
00000d43
00003d3a
00004e9e
000020b6
000015b9
000011e0
000026b6
0000471c
00003da2
00001a51
0000253e
fffff147
fffffbcb
00000885
00002030
00001c3a
fffffe7d
00001ce6
00000255
fffff927
00000685
000006f8
fffffda6
ffffcfca
ffffd912
ffffd4b8
00000050
0000022b
ffffeae8
ffffc0c2
fffffe10
ffffdcc8
fffff8da
ffffe1a8
00000e82
00000e6d
ffffdfe2
000009ef
fffff9e6
ffffec0b
fffffe25
ffffe047
000009d4
00001748
0000210d
00000815
ffffd2d7
fffffc70
fffffa8e
000000f0
fffffb5d
ffffccf7
ffffb07c
ffffe896
0000321e
0000255a
0000074f
00000e6b
00001745
00000b5e
fffff2d3
0000118b
00002760
00001ca5
fffff485
00000a3f
000014f2
fffff438
00000cae
00001b61
00001cd4
00000f64
0000032a
ffffe00e
ffffdd47
ffffe9d6
00002d49
00000696
00000692
00002e64
ffffe945
0000382b
00000b04
0000219f
00000277
00000df1
ffffee8a
0000158a
fffff0f8
fffffcfe
0000075d
000012dc
00000dfa
fffffdf9
00001510
000002e6
00000ea1
00000316
0000120d
ffffff24
0000189d
00001a53
00002383
fffffb7c
00001923
000006cd
ffffe61c
fffff23c
00000dcc
00001827
fffff97e
fffff6dc
ffffe804
ffffd76d
ffffe413
ffffe797
fffff01c
ffffffbc
ffffdc0b
ffffe880
fffffc82
ffffec60
fffff72d
ffffde81
ffffe7bd
ffffe5ee
fffff60e
0000133b
00000ced
fffff97a
fffff881
fffff175
00002751
0000060e
ffffc576
fffffa0e
ffffdd3f
fffffe02
fffffba5
ffffe8fb
ffffe7d3
ffffe659
00000334
fffff330
fffffd6b
00000a93
ffffef17
fffff4f0
fffff428
fffff644
0000046a
fffff17d
ffffe180
ffffec0d
000003af
0000156b
fffff520
00001bcc
0000155e
000012b5
00001116
00004430
ffffda3a
fffffbcc
fffff849
0000015c
00000f5b
ffffece1
ffffdebf
ffffefb2
000023a7
000006b7
fffff90b
fffff095
00000847
fffffe8e
fffff4ef
ffffff0c
fffffdf7
ffffdeb9
ffffe470
ffffef88
fffffca8
ffffead4
fffff361
fffff2a0
000001de
00000b7a
ffffca24
fffff7df
ffffa935
00001182
fffffea5
ffffd0aa
00000161
ffffde6b
fffff17b
00000d36
000019bc
fffffb51
ffffeaad
ffffdeab
ffffedc9
ffffe8fa
fffff900
00000d5e
fffff7f4
fffff618
fffff0bc
0000097c
00000558
ffffbe9e
ffffe12a
ffffd7d8
ffffdf9d
ffffeb86
ffffce7e
ffffedaa
ffffd326
00000316
fffff350
fffff787
00002993
fffff02c
fffffed5
000001a5
fffffaf7
fffff4e6
ffffe5d8
ffffeb24
ffffe23d
ffffe441
ffffff64
fffffbc2
000009fa
fffff899
00000b78
fffff356
ffffe9b4
ffffcac1
ffffc7f4
ffffce67
ffffc167
ffffc0a1
ffffe3e8
ffffef03
000023b1
ffffc8db
ffffec92
00000449
00001473
00000fa8
000005a6
00001034
000015bf
00000227
fffff011
fffffc30
ffffdbe6
ffffe417
fffff207
00000816
fffff627
ffffe71e
00000d43
fffff6d3
ffffe90d
ffffee9c
ffffd7f2
ffffc50b
ffffaa6c
ffff9741
ffffb84a
00000560
fffff236
ffffc9b3
ffffff19
fffff928
000011a6
00000f25
00000fd3
000013f2
0000176f
000021b2
00001941
000017af
ffffee62
ffffdc16
ffffe716
000019bb
00001238
fffff55e
0000041f
ffffe725
00000b37
000011ac
fffff165
00000062
ffffa6bd
ffff84c9
ffffbe39
00002da3
ffffefca
ffffb876
ffffe24f
fffff801
00001022
00000b25
ffffed14
000009dd
000027ad
00002771
000017bc
000015d1
00000da3
ffffe1f7
00000d45
00000925
0000127a
00001e5a
00000c59
fffff4a0
00000586
00001302
000009b3
ffffd998
ffffc6d8
ffffd407
0000086f
fffff6ee
fffff3aa
ffffcda4
ffffe4a4
fffff3ef
000025c4
000003c0
fffff5d0
00000a6b
00001a51
00001fd5
00001acb
00001148
fffffc4d
fffffe37
00000dad
0000119e
00000e08
fffffdf1
0000005c
fffff4b1
fffffdd0
fffffad4
ffffc8b6
ffffd560
00002f42
00002103
00000045
fffff481
fffff115
00002602
00001be1
ffffd5e4
ffffd480
ffffe43d
00001027
000025be
00002cc0
0000172e
000014ab
000016f0
000019fe
00000ca4
00001b24
00000f3c
fffffe9e
ffffe446
000002c6
ffffea49
fffff157
ffffec92
ffffd4e2
ffffb0fb
00002be6
00002992
00003666
00001396
fffff370
fffffd90
ffffdd49
ffffd260
ffffe499
fffffd8e
00001477
00000cd5
00001397
000001a7
0000026c
0000050a
fffff453
00000d74
00000913
00001a04
0000049f
ffffeba9
fffff7e1
fffff50d
000000f3
ffffd756
ffffedc6
ffffdb00
0000736b
00003d07
00001877
0000075c
fffff59e
00001d79
ffffdafd
fffff6f7
fffffbc3
00000144
fffffa39
ffffffc8
000000e7
fffffe4d
ffffea60
ffffec54
ffffe290
0000085d
00000413
00001dbb
fffffcc5
fffff44e
ffffe789
00001574
00001c65
000009fb
00000d99
fffff539
000053d2
fffffcc5
fffff42f
ffffbcc4
fffffbef
fffff7b6
ffffeda9
000012f7
ffffe6c8
fffffeb1
00000948
fffff956
0000014b
ffffe26c
ffffd3a1
00000261
fffffd40
0000086b
000013a1
000014f0
000012f2
00000fda
ffffef99
00000d9b
00001c7b
00000c2e
00000727
0000245f
00005edf
ffffe639
00004ff1
ffffff43
ffffbfb8
ffffdd88
fffff28e
00001aaa
fffff45c
fffff60b
00001a62
000017b5
00001a91
00000ce0
ffffffbf
ffffdf95
000005dd
00001848
00002307
00001a71
000019ac
00000c47
00000219
000010d1
000025e4
00001b36
000001cd
fffff547
00002163
000042d9
000032d5
00000598
ffffed11
00000105
ffffdb8b
fffffc32
00000293
fffff2cb
00000259
ffffebf3
fffff846
fffffac4
00000017
00001b0f
0000051a
00001595
00001cea
00001a6b
fffffe69
00002060
0000145e
00001ff8
00001a6b
fffff84d
fffff6eb
fffffdfb
00000000
000034c6
00000700
00001555
00000be0
ffffdcd4
ffffdc0f
0000035d
00002aa8
00000d97
00000bb1
0000091f
fffffb54
fffffd21
fffff78d
00000a77
00000e0c
00001f47
00000a75
0000057d
00000f3f
fffffb85
000008bf
00000c64
000007e4
00001b21
00002fca
00000bdd
ffffec1e
0000387a
fffffb90
000015f2
fffffeb1
00000f19
ffffef8b
fffff48f
00003dc4
000035be
0000223d
00000d14
fffff94c
fffff834
fffffd40
000003a5
fffffebe
fffff458
00001032
fffffd0b
ffffeca8
fffffa25
00000a45
00000b79
00004010
000018de
000005dc
00001ed1
0000032a
ffffd934
00000399
fffff934
fffff6ff
ffffe093
ffffd38a
fffff9b3
fffffe26
0000286d
00001c25
0000087b
fffffecf
ffffebde
ffffe6c7
fffff7bb
ffffda03
ffffe902
fffffb5e
fffff9dd
fffff83b
00001727
00001bbb
00001ecb
0000407d
00001c44
0000012e
ffffd9f6
ffffe7d4
fffffbd2
0000066e
00000263
000005ac
fffff4d9
ffffa782
ffffd96c
ffffcd29
fffffa39
ffffe8f6
00000033
00000ce9
fffff913
0000065d
ffffe306
ffffcb4f
ffffe542
ffffd76e
fffff484
ffffe941
000002ab
fffff9d7
ffffe891
0000069e
fffff7a9
ffffd5b7
fffff8e0
00002a1c
00000689
fffffef4
0000072f
00000539
ffffe04a
fffff763
ffffe6ed
ffffc52a
ffffe8f0
ffffce07
ffffe424
ffffcda7
ffffdc00
ffffe0f6
ffffcb18
ffffc759
ffffe251
fffff173
ffffd634
ffffed34
ffffec61
ffffa9d4
ffffd653
ffffecac
ffffed4d
ffffdbf7
ffffa760
000001e7
00000aa9
00000504
fffff976
000005ca
000007b0
ffffd3c0
0000062e
00000d93
fffffeaa
ffffc038
ffffc1f2
ffffae07
ffffa41a
ffffaae6
ffffda80
ffffb69c
ffffed7d
ffffef45
ffffc2b8
ffffc908
ffffd621
ffffa99b
ffff9bfc
ffffc3b2
ffffa083
ffffd66b
ffffdfb2
00000099
0000054d
fffff806
ffffffa6
fffffa03
fffffc90
000001c2
fffff47e
ffffeb86
ffffdc55
ffffe3e7
ffffdf4f
fffff577
ffffccf5
ffffd39a
ffffe238
ffffa998
ffff9923
fffff1e0
ffffbed6
ffffaad7
ffffc675
ffffee32
fffff317
0000035a
fffff034
ffffee28
000008c8
fffffdac
fffffda6
00000897
fffff8cd
00000714
00000041
fffffb6b
00000804
000007f2
00000789
000000cc
000004f8
fffffbdb
00000465
fffffba1
000000e3
000005bb
00001e10
00000bd4
0000031f
00000066
fffffdc0
000003d5
00000824
000002aa
fffff938
000003ae
0000023e
00000579
0000018b
fffffb93
fffff8e6
fffffdcf
000006cd
0000044e
fffffc4d
000005cd
fffff318
0000005b
00000819
fffff642
0000010b
00000301
fffff5c4
fffff997
00000fc4
000014f0
00002550
00002742
ffffffab
fffff638
ffffee8c
000000e6
00000059
0000077c
ffffffae
fffffe93
00000745
fffffaa7
fffff941
fffffebd
00000570
000004dc
fffffac3
fffff7fa
fffff0bc
fffff87a
ffffffd1
00000a02
000043fa
00006442
00004515
00006685
00005759
000056c5
000060d1
000032e3
00002e53
fffffae9
000002cd
ffffed1d
ffffe25b
00001f8a
00001842
fffffe8c
00000276
fffffca8
fffff9fc
000000ec
00003401
ffffdc44
ffffbb61
fffff0f4
00000cf8
000030d1
00001ab7
00000549
fffff833
00004fec
000041df
000010a7
00001f21
00001577
fffff0fd
ffffefb0
ffffe330
ffffed37
ffffe736
ffffc027
00000dac
ffffef23
ffffb4a4
ffffb8ed
ffffcb2b
fffffa08
000008a6
fffffdba
00004973
ffffd63a
ffffd0e3
00001de9
00001ee3
fffff3da
ffffc752
ffffd876
ffffef21
000018e8
0000171c
fffffcc2
00000599
000011bc
00001420
00000755
00001575
0000271c
00004115
fffff18d
000007f8
ffffd712
ffffa8a7
ffff9b63
ffffb1f9
ffffc327
000002a9
000000fe
00003658
ffffdb6a
00003fb7
00006e7a
000027ef
0000086a
fffffec5
fffff495
fffff2ff
ffffe5d8
ffffd5df
00000e38
00001888
00002230
00002358
ffffeddf
00000a5b
00000fe8
00000348
ffffe9f7
fffffb80
00000552
ffffd0a7
ffffc4a3
ffffbc43
ffffce91
fffffcd7
00001b9f
ffffe19b
00002795
00000ca6
00002dc3
00001692
00000179
ffffeaca
00002946
00002a73
ffffe729
fffff775
fffffd96
0000266a
00002759
000035ca
0000282c
00001ca4
000016a3
0000058c
fffff96a
fffff65c
ffffc371
ffffa881
ffff890a
ffffc66b
ffffc7c6
00000aa7
00004aa2
ffffe6a1
00001f03
ffffe065
ffffd3ea
fffff621
fffffb62
fffff956
00001662
00000535
fffffdf5
000017e5
00002584
00002599
0000205d
00004e97
0000418d
00000657
0000154f
00001dab
00001a88
00001cba
ffffe833
ffffb627
ffff84a7
ffffc640
ffffc811
fffffacd
000019cd
ffffed3f
ffffc47c
ffffc40c
ffffeba7
ffffb02c
ffffe240
000009dd
00001ceb
00001d49
00001604
00000150
fffff31a
000021c2
00002fcb
00003acf
00005485
000027bd
00002943
00000b26
00000720
00001dfc
ffffeae1
ffff9f54
ffff50a4
ffffdbe4
000001d9
000000db
00000b00
ffffd35b
ffffcf4c
ffffd82c
0000108a
00000e7f
fffff58c
000017fe
000044cc
000024d5
ffffebfb
00000952
ffffa9f6
ffffb8c9
00000361
0000404c
00004573
00003161
0000270f
fffff836
ffffe341
000001b3
fffff310
ffff8de8
ffff72b7
ffffe92b
000000fd
000000a2
0000109b
ffffd549
ffffdafd
00000f7a
00000ebd
0000493e
fffff4c8
0000365f
00001ea7
ffffde92
ffffb0fb
ffff9609
ffff6bb1
ffff9404
000008b0
00003c40
000042ad
0000338a
00001f88
ffffe2db
ffffd99d
ffffda42
ffffbdc7
ffffd0d7
000021c9
00000f0d
000020d5
00000317
000006ac
ffffb373
ffffcaee
0000248d
00002edc
00003e5e
fffff8d2
ffffd4fd
ffffd868
ffffaa97
ffffc6b8
ffff9fed
ffff6fac
ffffb919
00002a28
00002c92
00002832
00002f09
00000271
ffffeab8
ffffd1b2
ffffcc30
ffffde60
00001cac
000032ed
fffff1bd
00002184
00000143
fffffeb1
ffffb3d6
ffffef82
00001243
00001287
fffffe88
ffffadd1
ffff8a2f
ffff8be7
ffffb100
ffffb10d
ffffc8aa
ffff9288
ffffe53d
00002375
00002fbc
00001be3
000003d3
ffffd371
ffffe661
ffffed74
ffffe8f0
ffffee53
fffffc29
ffffe076
00000a2b
ffffd540
000014d3
000012c4
000008a4
000004ef
ffffe092
ffffb699
ffff9655
ffff8e31
ffff8a41
ffffa065
ffffdce2
000010bb
ffffe008
ffffedef
00000eb7
000004f6
00001178
00001187
000000c0
ffffc6fd
ffffcc80
000003d2
00000599
ffffe993
ffffd810
ffffbf7c
00000340
000003c0
fffff3c9
00000c71
00002143
fffff7ae
fffff9ee
ffff86dd
ffff6514
ffffbd6e
ffffba8e
ffffe27b
000016f7
00001ea2
ffffed69
fffffc8a
fffffef0
000021af
00001fb0
000013cc
00001393
fffff3a1
ffffe6c7
00000a05
0000061e
fffffd17
ffffff0d
000009dd
0000422d
00000c96
fffffa74
fffffb86
00001998
000005dc
ffffbc5e
ffff8d49
ffff8333
ffffc329
fffff18b
fffffdd8
00000ac9
00000a1e
ffffe224
fffff134
ffffef3b
00000ee8
00002312
00002cce
fffffde5
ffffe91c
ffffc0ab
0000126a
fffff6dd
00001735
000017cf
00000c41
000022d8
00001476
fffffed5
00000cbc
000014dd
fffff72c
ffffc06b
ffffe25f
ffffd41d
ffffc7d5
ffffed93
0000198b
0000162c
fffff3ef
ffffe3fc
fffff38d
ffffe935
fffffce2
00001558
fffffda0
ffffbcf0
ffffea12
ffffade3
fffff8dc
ffffddb0
fffff0e6
00002d56
000000ba
00000ee1
00000b38
00000093
00001008
00001ba7
00002884
ffffd288
fffff0b0
ffffe174
ffffd854
fffffc73
00000abe
00000d8a
00000a51
fffff789
fffff90b
0000102f
0000134a
ffffff71
ffffc9a6
ffffb045
ffffe80f
ffffbf4f
ffffcba9
ffffd25e
fffff391
00001763
000017a5
00002b12
0000079e
0000364c
00002606
00000833
000052dc
fffffccb
00000a4c
ffffd82c
fffffe5a
00000134
00000ae2
fffff53d
ffffff7c
0000043e
000016a6
000012f9
fffff9c4
fffff15e
ffffe857
ffffd6f9
ffffff6b
ffffecc0
ffffe38e
ffffed88
00000a81
00000b8e
ffffd3f7
00003693
00002fa6
fffffe45
00000beb
ffffdf23
000035de
000012e3
ffffef04
00000707
00002710
00001911
000013c6
ffffe8c3
00000f7f
00002932
00002c88
ffffecd9
ffffef06
ffffea90
ffffe1f6
ffffc17f
fffff98e
fffff575
0000172b
00000316
00002f99
00002343
fffffb6d
00002620
000026f8
0000083f
fffffdc5
ffffde39
00005a03
0000111d
ffffe1fd
000007ce
00002737
00001a00
00000d18
00000d25
000012dd
00002b09
000007c8
fffff8cf
ffffed9f
fffff9f2
ffffeee6
fffff83a
000011d9
00001b2a
000031aa
00002598
00003d28
00003fda
00001177
000025a2
0000082f
00001abe
00001136
000004ce
000032b6
000005e4
fffff180
00000335
00001e2d
fffffee5
fffff8f2
0000494b
000019e9
00001596
0000107d
00000a7e
ffffffda
00001373
fffff62c
000012b4
000019f5
000029ca
00005689
000027e6
0000226a
00004a52
00000405
0000044c
0000088f
00001b11
0000200d
00001f8e
ffffe693
fffffeeb
00004e16
0000182a
00002b07
00001f2b
0000024d
00001d19
000019c6
fffff829
fffffbb6
00001081
0000185b
000017b6
fffffed4
fffff706
00001075
00001aea
0000207a
000002cf
00000989
00003d48
ffffebc7
000013a7
00000551
0000048f
fffffd1b
00001f5a
ffffbd40
ffffe2c8
00001adb
0000294d
00002f8c
0000098c
00001422
000005e4
00002810
000009c2
0000085d
ffffeeea
00000c51
ffffec06
ffffd55b
000004a5
fffff44f
ffffe266
ffffed3e
fffff827
fffff9bf
0000362b
ffffeb0a
00002d20
fffff7ff
000005a2
000003c4
00002103
ffffe9c6
00008b68
00005234
fffffae0
ffffde04
00001893
000023f9
ffffffd2
00000d64
ffffe8b7
fffff3e0
0000139f
0000241e
ffffd928
00000b29
ffffdf47
ffffbcb1
ffffa98a
ffffeaff
fffff7e6
ffffe073
000042cf
00001e9e
00000ef8
fffffc80
fffffeb4
00000515
ffffe2db
00003451
0000390e
00000f4e
0000083a
00001d5c
00007039
000059ae
00002dc9
000027b1
00000dae
ffffaf51
ffffd2aa
0000054d
0000073b
ffffdd02
ffffb50d
ffff73ab
ffffe1a0
fffff793
fffff55b
ffffced6
fffff7c1
00000960
0000115d
000000f6
fffffe40
fffffea0
00000480
fffffd31
ffff9f38
ffffab11
ffffb854
000008c1
000051ed
000032ac
0000174a
ffffef27
ffffebb5
fffffbce
00006a12
00004d00
000024ae
fffffe5f
fffffbf1
ffffdb63
ffffd516
ffffd397
ffffda0e
fffffe3d
fffffa3a
00002631
0000015c
fffffc34
ffffff27
00000108
00000378
00000330
00002f4f
00002e4c
00001f50
000007ac
00000ec8
00001352
00004d50
00004850
0000189d
00001e20
00001d96
00001e0b
00001bd8
00000dd0
fffffa6c
00001009
fffffefc
ffffe841
ffffd93d
fffffd2a
0000046b
000001f9
fffffddd
fffffd3f
ffffff92
00000111
0000063a
fffff8c7
000006c0
fffff737
000000fc
0000070e
000001e3
fffff8a3
fffff869
fffffe3b
00000313
0000102f
00002034
00000d13
000000c5
00000714
000001b9
fffffd14
fffff87d
0000078a
fffff934
fffffc83
fffffee4
0000066c
000000bf
00000510
000007da
fffffb23
000001cc
000007f7
0000040c
000009ae
00001c8c
00001d1f
00000ed0
00001866
00000e73
00002a37
00003864
00002a5d
ffffeaa7
00001617
000032c3
00003e1e
000030a0
00002330
00002413
000021e4
00002588
0000107a
00000255
00000442
00000798
fffff88f
00000615
fffffa4e
0000118c
000032ba
00003ea8
00000be9
0000123b
00001644
00000707
ffffeb61
00003026
00005521
00000f0a
ffffc2f9
ffffeb16
ffffd65f
fffff08b
ffffdeef
00001916
ffffdcb2
ffffdc99
00001b75
0000180b
00003f79
ffffff8a
ffffe63c
000002d6
0000065b
fffff9de
fffffec6
ffffcfa1
00003aa4
0000335c
00004b3f
00002a41
00001424
0000518e
00005408
000054d8
000059c7
0000498c
00004d5f
000043f7
00002fce
00003548
0000228b
00000be9
fffff78f
000014e1
00001604
fffff379
00004afa
00001092
0000125d
000013fd
00000455
fffffc55
fffffdd7
ffffcf39
000021ac
0000280a
00001484
00000443
00002f5f
000029fa
00002906
00002d9b
00001c7a
00000f05
fffffa80
00001879
00002952
00001dc6
0000185f
000005cd
0000063f
fffffaaa
ffffca7e
ffffea8b
ffffee0d
fffff6b6
fffff970
00003d00
00001bfd
000002ef
fffff718
000009d4
00000b97
fffffa53
ffffc33b
ffffd8d9
0000157f
fffff212
ffffde51
fffff940
000001e7
fffff68a
ffffff3e
000011af
00000a20
00000a9c
00000443
fffffc58
00000f16
000013b2
ffffe285
ffffe6a7
ffffb900
ffffed44
00000d83
00004a77
00001a66
0000062a
00001a4f
ffffd9b9
ffffe196
ffffc6cb
ffffb8bb
ffffef23
00000edb
00000d54
00000709
000015b1
00000500
fffff174
0000066e
fffffb29
00000efc
000009aa
00000339
00001027
ffffff68
0000044f
00000238
fffffc37
ffffe92a
0000057e
00000b06
ffffedec
00000936
fffff393
0000185f
ffffd553
ffffb769
ffffd230
ffffec28
fffffcd7
00000d1b
00002041
0000098a
0000187b
00001a37
0000063a
000007a3
fffff592
00002948
00000738
000003ff
000016c8
00000e0b
000003be
fffff23e
ffffeec1
ffffe89d
ffffe7f4
00000adc
ffffec04
fffffea2
0000413a
000008f2
ffffeb66
00000024
00000836
ffffeebe
00000480
0000150f
000011e5
fffffc82
00001abb
00001425
00002286
000027f6
0000152b
0000110a
000018e3
000003c7
00000508
00001437
00001850
00000648
00001495
fffff40b
ffffeea7
ffffe22a
fffffc05
0000232f
ffffed08
fffff53f
000010d2
0000188b
fffffbad
fffff1e2
000016a5
00000982
00000a2a
00000ab2
0000175b
00000f86
00000b60
000014c3
fffffc8a
ffffebcf
ffffebfc
fffff417
ffffe95a
000006f2
000016f8
0000003b
000009bc
00002159
00001014
00001a00
fffffe4f
ffffdaf8
fffff063
ffffe336
0000029b
0000224b
ffffe59c
00000829
00001df1
000014fe
000010ca
fffff7aa
00000c9e
000004b0
fffff932
00000cbf
0000117b
ffffd00e
ffffeddc
fffff3c7
0000010d
ffffe88d
000003a6
fffff3f4
00001cec
00003b96
000001ba
ffffdf91
00000ddf
ffffdf3a
ffffe40e
00003782
ffffdd49
0000227c
00000713
fffff921
0000148a
00001482
00000ce4
fffff2fe
fffffece
000003ed
fffffd38
00001085
00000e1e
ffffebf8
fffff029
000011f8
0000119e
000000a8
fffffce0
fffffb9a
00001532
000014f1
00004d36
00005495
00006b36
ffffe8bc
fffff29d
fffff201
000012cb
00002903
000017ee
fffff615
0000244f
00000570
ffffdba1
fffffe71
fffffa77
fffffee9
fffff370
00000e15
0000196e
fffff40c
ffffe933
000015bc
fffff9fc
fffffef1
00000127
fffff729
00001bdd
00002ac8
00003090
000011f8
000001df
ffffd8b1
ffffec5d
0000036f
ffffe978
00002dea
0000174a
fffffa2d
00000818
ffffedf0
ffffe68c
00000417
00000a25
00001330
000012ad
00001d32
000007a6
fffff31b
fffff724
fffff600
00000459
000013b2
fffff3fe
fffffc0e
000025d9
00002591
00000c26
00001381
0000252b
0000090d
00000034
0000037e
ffffd4b7
ffffff51
fffffb70
000000a7
fffff923
fffff726
fffffbaf
00000625
000016f4
00001f15
00001def
00000dd6
fffffb29
00000058
ffffe462
fffff676
00000899
fffff3cb
00000765
00000d58
0000171c
00002add
00002681
00002e89
00000c1e
00000325
fffff0c1
000011e1
ffffd4c8
ffffbbda
00000470
00000daf
fffff0c7
fffff32c
00000ab5
000005ce
00000b14
000003c6
00000c05
fffff679
fffffcc9
fffff2ce
0000001b
0000020d
00000e9f
00000551
0000127e
000001cb
fffff536
00003233
000066db
000020fc
ffffcc59
fffff473
ffffe3ae
000011ac
000010b9
fffffcd9
000000a5
ffffebfb
ffffef06
ffffee64
fffff778
00000d40
000015d3
000011fd
fffff580
fffff3ee
fffffa59
ffffee74
fffff140
fffffe71
fffffc85
fffffbf2
fffff9e7
ffffd2ed
000009fd
00002b0e
00002d32
00000ed7
000000ec
00001870
00000535
00000913
ffffe28b
00002314
000014bb
fffff1cd
ffffe63a
000005ea
0000066d
00000df6
000006db
000007b2
00000b30
0000012d
ffffeb21
ffffe590
ffffe662
000001eb
ffffd93f
00000c13
ffffed7d
ffffd20a
ffffdc7a
000020f8
ffffe566
ffffbb84
ffffb869
00002610
00003b7f
00000c34
fffff881
000010d4
00000bad
000002e0
00001577
fffffcb5
00000d55
00000f09
00001a8e
000010e3
0000089b
ffffeb59
ffffdc3f
fffff8bb
fffffbd4
ffffeada
ffffd606
fffff9bd
ffffeab6
ffffcd7e
fffff9ce
0000028f
ffffe055
ffffce7e
ffffcc66
ffffec76
fffff7bd
000007c3
fffffc9d
00000d6e
00000a27
00001d4e
0000041c
00000020
0000016a
fffff596
00002870
00000015
0000189e
fffffd93
fffff4d6
fffff00d
ffffefb4
fffffc86
fffffd0f
ffffff02
fffff008
ffffee58
00001196
00000107
ffffcdbe
ffffab68
000001b7
00000876
fffffe8d
000019c3
ffffd4da
00001735
000022ba
00001857
ffffeeb7
0000064f
00000c49
00001ca2
00002397
00001684
fffffa3d
000015be
0000095b
fffffce6
ffffed35
ffffe4eb
00000034
ffffec99
000004b7
00000741
00000a0d
ffffe262
ffffc3d0
ffffdb7e
ffffe368
ffffeab1
ffffebff
fffff604
fffff9a3
00001d18
000000e7
ffffd7c6
00000a23
000018ea
00000218
fffffc12
00000307
00001910
00000a11
000027c6
000014c5
000013b4
fffffae5
00000f3b
fffff079
fffff82d
fffff649
ffffd812
000003ba
ffffd0ab
ffffa417
fffff07b
00003f72
000008bb
ffffe333
fffffdb5
00000d94
00004a18
fffffd5b
ffffe3e9
fffff4ce
0000024a
ffffe1bd
00000806
fffffbae
00001aca
00001eba
00002435
0000235b
000011ed
00000cf6
00001c82
000008b4
fffff09a
ffffedb0
ffffbe94
00000f37
fffff0c1
ffffb7bc
ffffefed
0000191c
0000004c
ffffffe6
fffff7f4
00002003
00004aa7
00000e22
0000073f
ffffd2dd
ffffe3e9
fffffc82
ffffeffa
000002ed
000004aa
ffffeb0e
000010f7
00000c56
00000b24
00000d90
0000053f
00001662
ffffda78
ffffeb6c
00000065
00003343
0000250c
00001632
000016a9
ffffdfee
fffffc46
fffff89f
00000318
ffffe35b
00004456
00000fe4
00000015
ffffeb4a
ffffe2dd
fffff690
fffff4e2
00000280
ffffffa4
00001ad4
00001aeb
00000e44
00000ae3
00001a8c
fffffc93
fffff8ec
ffffe411
00001371
00001acd
00000555
000024e5
00001b09
ffffcec2
ffffded0
000002bc
00000072
0000017c
000024fd
ffffbca6
ffffaf6e
ffffe605
00002763
000011df
00000122
000009b4
000031cc
00001c1d
0000231e
00003932
000009ef
00000c02
00001ace
000002f0
fffff0d2
000044a4
00003c9a
00000661
00001a93
00001b5b
000049a4
fffff23a
fffff87c
fffffd50
fffffaf6
000002d4
fffff777
000038c3
000011ea
fffff51f
ffffec2f
fffff731
fffffcf9
fffffc26
0000195b
00002d76
0000278e
00001604
00002b11
0000120a
00002a83
00002742
00002fb2
00002d30
00003950
00001b60
000011e5
000025e1
00001d06
ffffe28b
00000086
000006c9
fffff741
fffffb99
fffff998
fffffda7
ffffd283
ffffcc05
fffff7f4
00000de5
00001047
fffff53f
ffffdc9c
fffff0c7
0000064d
fffff038
00001845
00001194
fffffde9
ffffcd18
fffff8b4
ffffe6fb
ffffdb41
ffffd9f6
fffff3d9
ffffe80c
fffff8f3
fffff6f1
fffff9fe
fffff7b4
fffffb45
ffffff44
fffffbf2
fffff7fd
0000035c
ffffff86
000000d7
fffffc68
fffffec7
00000649
00000519
fffff7d0
000005da
fffffb55
fffffe7d
fffff80b
0000047c
0000006a
ffffff1a
ffffff9c
0000057b
ffffffeb
fffffac0
00000898
fffffca5
00000762
0000057d
fffff7bc
000008b9
00000274
fffffd1b
fffffcb5
00000162
ffffff2a
000018d3
00001300
00000ef1
0000246a
0000075f
00002abd
00003241
000025c6
ffffedf1
000029c3
00000f51
00000a0b
0000140d
000011a9
00000b9d
00000ade
00000b17
0000020c
fffffa42
00000303
fffffd8b
fffff727
000008ac
0000003b
fffffbfb
00004a8a
000043af
00000e49
00000e08
000021bc
00000bd4
000010a4
00004f37
0000833d
00006c99
000050a7
fffff3ae
ffffd403
000005a3
00001746
ffffd954
00003536
00004594
00003ce0
00002596
00001c97
00000ad3
fffffd6d
fffffc4c
0000049f
fffffdc2
fffffbfa
fffff591
000048bc
00003f2a
00003a84
00003179
0000304a
000028fb
0000017f
0000079c
0000348a
0000485c
0000552c
000057b5
00002194
000026ec
0000056f
000020e8
00004a07
000060d9
0000215c
000001cb
ffffe535
ffffe6c1
ffffbed9
ffffc90e
00000749
ffffffba
00000045
00002611
000012b2
00003ea3
000000dc
ffffe517
ffffd407
ffffe8ca
fffff3a3
000025c8
00002ab5
0000068c
00001442
ffffeb16
ffffec54
ffffce38
fffffadb
0000101a
00000e31
00001097
00001f29
ffffd60a
ffffbe94
ffffa31a
ffffda1c
ffffe8a1
ffffe20d
00000038
000001fa
0000486e
fffff98e
00003886
00001889
000000da
ffffed81
fffff566
ffffefb5
ffffe74b
ffffb98b
ffffdbba
fffffa0f
ffffe844
ffffe6fd
00000883
fffff8a2
0000166d
00000eac
fffff562
00000a0b
ffffd55f
ffffe969
ffffd5f1
ffffc4fb
00003238
ffffeb15
000007f1
00000d33
fffff815
00002974
00002691
fffff9cf
ffffe98c
ffffe7d6
ffffe9c1
ffffce2d
ffffe247
ffffc551
ffffc00f
ffffdc30
ffffd2c7
ffffcc54
fffff099
fffff972
00000fca
fffffd01
ffffefa8
00002b36
ffffdae9
ffffbc11
000006e7
ffffd628
ffffc036
ffffb4f7
ffffff4a
0000316f
00000238
00001ab7
00001742
fffff6b1
fffff964
00000044
ffffde1a
ffffe015
fffffa84
ffffe69a
ffffe470
ffffe4af
ffffe9f8
ffffe1e2
fffff314
ffffeb75
00000c19
fffff12c
ffffffc9
00000768
ffffda57
ffffc317
000000ea
fffff4fb
ffffb9d1
ffffd3c3
fffffd65
000050f7
fffff896
ffffe883
fffff43f
00001d9b
ffffe55c
ffffeeba
0000084e
00001a4a
00002258
fffff447
00002052
fffff6c7
0000154d
000000c0
000006b6
fffffd5a
fffffad4
ffffe78e
fffffe85
fffff9e3
00000403
fffff1a3
00000ef9
ffffe311
ffffa5c3
000008c7
00000bd1
0000559d
fffff5a2
00000aeb
00003a4a
00003602
00001a37
00002add
00003323
000032b6
0000289c
00001fa1
00003f9b
000055bb
000041df
000005dc
fffff5b1
000007ad
00001705
00000a3d
00000555
fffff910
00001a11
00000669
00003a29
00000279
ffffaf63
000022ee
000009d0
000045ba
000031a3
00002b8a
0000251e
0000001a
00002977
000031a4
00003884
00004f78
000040c5
00004ace
000056ae
00007e2b
0000414d
00002b3e
0000244f
00001e0f
0000310c
00000bbe
0000152f
00000b30
00001bf8
00002503
0000314f
00000012
000010e5
000003ed
00000aba
00000fcb
00006689
00004478
00001bf7
ffffedde
fffffb41
0000177a
00000bb5
00002c0d
00004313
00005d4f
00004446
000058cd
00000f97
000005ea
ffffefd6
00000829
0000229f
00000383
ffffea54
ffffe5b6
00001646
00003328
00002161
fffff531
00003f38
00000632
ffffffda
0000126a
00003e6e
fffff009
00000bbc
fffff728
fffffbd8
000004a9
00001515
000037b8
000029ae
00001e3f
0000223c
fffffe21
ffffdffc
ffffbfa1
ffffde92
ffffef20
fffffca6
ffffcfe3
ffffdf94
fffff4d1
00002df0
000016d5
00002a07
0000083a
00002a0e
fffff552
00000868
0000149b
00003bc2
ffffcbe5
ffffc375
ffffd46d
000016bd
000002a9
00000076
00000c9c
000002d5
000010bb
ffffd70f
ffffbd2d
ffffccb3
ffffbb84
ffffc8af
ffffcdf3
ffffda5e
ffffdf51
ffffd24e
00002989
000012bb
00000e7f
0000533f
00001c00
ffffda41
ffffea0c
000008af
0000131c
000058b5
fffff0b9
ffffcb8f
ffffec6c
fffff9df
ffffe80e
ffffff90
0000108e
fffffc36
0000082b
fffff5ef
ffffc9cc
ffffcfeb
000002e0
ffffcb98
ffffca09
ffffdd36
ffffef17
fffffd07
000024ff
0000272a
000036a3
000059c7
0000151a
fffff48e
fffffc89
00001c8a
00000396
000002c5
000001f1
ffffc888
00001008
00000650
fffff154
ffffe9f7
00000b33
ffffff1d
fffff0da
ffffeeab
ffffd8c3
ffffddb2
fffff5f9
ffffd4cb
ffffe1da
ffffefc2
fffff671
0000133f
000025e1
0000209b
000044ed
00006aa1
ffffed28
ffffe385
00000974
00001e1a
00000684
00000b3b
fffffb6b
ffffd631
fffff81e
ffffdce4
fffffc72
00000f5e
00002ba2
000015e6
fffff74f
ffffec7a
ffffec1b
ffffe61e
ffffd0f3
ffffcbb4
ffffd7e0
fffff631
000011a9
fffffdb3
000028c1
000016d0
00001af2
00004146
ffffb868
00002219
000027df
fffff90c
0000029c
ffffca68
00000459
ffffbbc4
ffffbfd8
ffffc523
000001d3
fffffdd5
00000571
00000cbe
ffffe625
ffffeac4
ffffe5bf
ffffe426
ffffd5fd
ffffc067
fffffb8c
00001c46
000024f7
0000210e
00002370
000029e5
000036c5
000023c2
ffffde8e
ffffdf68
00002b3d
000045c3
00000d7f
ffffe0bf
ffffe8ef
ffffa804
ffffd7e1
ffffdf99
fffff3bf
ffffffa5
fffff822
fffff664
ffffe7a8
ffffc13a
ffffa896
ffffc000
ffffddc5
fffff09a
0000292e
00002cb9
00000aaa
00002f3a
000027ff
00002bfd
0000258b
ffffc0b3
ffffbd43
ffffeed3
ffffd7b9
00000658
000042cf
ffffedee
000000fe
ffffc0e1
ffffe0e1
ffffd023
ffffebba
fffffc7c
fffffa12
ffffd900
000003cc
ffffee3d
ffffcc60
ffffd5d2
fffff51f
000015b6
0000495f
000017ad
00000a5c
00001e67
00000f67
0000018f
00000188
ffffdefc
ffffa8ec
ffffea58
0000026e
fffff80d
00000965
ffffc11b
00000fb0
ffffdafe
ffffd33c
ffffcd5a
00000b8e
fffffdc7
00002846
00000003
000000f8
00001219
00000204
fffffbda
0000139b
000009d5
000020cc
000008e8
ffffffc8
ffffeef9
000011fb
00000f92
fffffb6c
ffffeea9
ffffb289
fffffbb4
fffffdc9
00000050
00000043
ffffca85
000007cd
ffffee09
ffffd074
ffffdc36
ffffe2b4
ffffef39
fffff6e6
000016d4
0000208f
00002a9f
00002aa8
00002e76
000009a4
0000180a
00000b00
00000cd4
fffffa1d
00000d01
fffff513
00000c82
fffff25d
ffffcb99
ffffb6f4
fffffff2
00000ab6
fffffc23
00000b33
ffffe69a
00000cff
00001165
fffffeec
fffffc33
fffff1fa
fffffde3
00002705
00001905
00002d01
0000489e
000032ad
0000245e
00002c1b
000025ab
00002ab3
000006b3
fffffb97
000007ec
fffff349
00000e71
ffffeb66
ffffc72f
ffffc5f0
ffffe2f8
0000096d
000003cd
000002a1
000038d4
0000145e
ffffe1b4
00000fbb
000016b3
ffffe9b9
ffffeadd
00001c47
000025d4
00003985
000039d1
0000297c
00001b07
00001ad0
000017a9
00002c42
0000064f
ffffeb7c
ffffe410
ffffd04e
ffffe9c3
ffffec3a
fffffa6c
ffffe703
ffffe873
00000920
fffffbe1
0000035a
00002408
000026ae
00004491
00005898
0000397b
000022b6
ffffeb86
000002c2
000028b8
00001d4d
000025dd
00001d7f
00003926
00004b21
00002620
00004a9b
000005cd
fffff8df
ffffce30
ffffe944
ffffea34
00000823
000024a9
ffffec38
fffffe16
fffffd69
ffffff3d
000008a2
fffffd5b
fffff58b
00006a16
00004cd0
00003956
00003cdf
0000214f
0000083b
fffff865
fffffc5c
000040c5
00001a05
000003a8
ffffeba5
fffff4ca
ffffdb44
ffffca74
00002f69
fffff2ab
fffffea2
00001388
00000457
000041f3
00000553
fffffa0b
fffffb0d
00000413
fffffb7e
00000068
fffffe4a
000010e4
fffffa6a
000012dd
000036f3
ffffda4c
ffffd277
fffff90a
00001e16
000013e7
000039a4
0000017b
000031e1
00002a3f
00000891
fffff396
0000566e
000016d2
00001aa3
0000536e
00001580
ffffe492
00001772
000008ed
00000580
00000317
00000108
0000062e
00000667
00002ed2
00003adf
000035e3
000025d5
00002fa7
00001c55
00002502
0000102c
00002134
00004d5c
00005a8d
ffffeefb
0000239b
00005971
000019e1
000008b9
0000167c
00002873
000027b4
0000329a
000001f4
00000028
00000368
0000082d
fffff988
00000472
00000894
fffff7fe
fffffb1f
00000013
fffff9cf
fffff9c3
00000220
fffff796
00000024
0000075f
00001633
00001cf4
00001a27
0000115f
fffffab1
fffffdb3
00000657
fffff884
000006be
000004cf
0000040c
0000026c
fffffd12
fffffb0f
00000380
fffff8da
fffff7d7
000001f1
fffffa81
fffff7bf
fffff4a9
fffffa2d
fffffd79
fffffb6b
000002f7
fffff4f4
000005a5
000003b2
fffff6ef
ffffe56b
ffffed7a
00000153
00001dc3
00000ef6
fffff15d
fffff9ff
00000371
fffff0a9
ffffe90e
fffff1a8
fffffa82
fffffd0e
fffff6fa
fffff95c
000001bb
fffff755
fffff9d2
000013ee
00000883
000000bd
00000044
ffffffcd
00000d6e
00000c78
fffff7e0
ffffeb48
00001541
000016b2
00002617
000021bc
000020cc
fffff60e
00000d28
ffffd6d3
fffff671
00000b85
fffff7b1
fffff91d
00000e03
00001798
00000429
00000822
00000314
ffffff94
000032cb
00002179
00002e4b
ffffe7d8
fffff6ca
00001657
fffff925
00001dd2
fffff24d
ffffe5cc
00000824
00001ce4
fffff9e2
00001338
00003217
0000393e
00003903
00001ce6
00000545
ffffdb01
fffff4e3
00000e55
00000b6b
0000308a
fffff7d9
fffffdb8
fffff85f
fffff2aa
00001c69
00001236
ffffeac0
ffffde46
00001dbf
fffffdf9
ffffd457
fffffcf9
ffffe2f1
00000d5e
0000220c
00001354
00002c89
00002b68
0000393a
00004b39
000036ac
000022ee
00000df0
ffffdd57
fffffa9c
