00005d35
ffff1b7e
ffffcf04
ffffcce5
ffff895e
ffff5a6a
ffffe3ee
ffff94ba
ffffd59c
ffff5211
0000130b
ffffe250
000020b2
0000446a
00002ac2
000063f2
00000db3
000025f7
00001a3e
fffee132
00002f71
000056ed
ffffcf7a
00002552
ffffc275
00005a64
00002fa3
ffffd0d4
ffffde83
ffff8a63
000011aa
00001e95
00001ad6
0000142e
000022b4
ffffc9bb
ffffcfa9
ffffc3c3
ffff9d90
ffff8efd
ffff727a
ffffccbd
00000caf
ffff9d3d
00002744
000014b7
ffffbcb6
ffff64a7
000001bd
ffff7024
ffff6d76
000003ef
00000b97
ffff8d57
00001a53
000022b8
000037af
00006d2c
00002042
000034c3
00003351
00000c67
ffffaa39
000047a5
ffff9e87
00000cc9
000030b3
ffffc936
ffffd4af
000026ef
0000377c
ffff8417
ffffd95d
ffffcf88
00002842
ffffe1bc
ffffbb13
fffffb69
00001266
00003bf6
ffff4a88
00000df4
ffffb0e6
ffffe0a2
ffffe1a3
00001e97
fffff9fe
0000163b
0000275e
ffffbdf5
ffff7d55
ffffb48e
ffffd1fc
ffffa3b8
ffffecb9
000006b5
00002a6a
00004a5b
0000254b
ffffeacc
ffffac9e
ffff5efd
0000450c
0000311e
000024f9
00001b83
000018c7
fffff31b
00004446
00003731
ffffc054
ffff65df
ffff278a
000023d2
ffff8853
00001452
0000241b
000005ee
000040fd
ffff673f
00000fd3
00005001
00004c40
ffffec5f
0000241b
0000472f
ffffea7f
0000181a
ffffea9d
ffffabbd
ffff87d6
000003fd
fffffc61
000007c2
ffffd43e
ffff8f2d
ffff8b76
fffff219
000009dd
000058bd
ffffdfe3
fffff35f
fffffdb9
ffff52d4
00003e52
ffff756f
ffffc36b
00003721
ffff3f0b
00005dbe
00001cb4
ffff9123
000026df
ffff6cea
00000ae9
00004ab7
0000295e
000057f8
00001567
ffff6af2
000007f8
00007ef3
00001e95
ffff73ee
ffffc8a2
ffffe3a4
0000326d
00004947
00004a92
ffffb85f
ffffa951
ffffb7ad
ffff7c23
00005463
ffffcbd9
000082fb
ffffb17a
00003490
ffffe69f
ffffbf9c
000038b1
0000082a
ffffcdfd
ffffdb8e
fffff543
0000181a
ffffdcd0
ffff9e72
000026dc
00008008
000015b4
00008d29
000019b2
000073a8
ffffe484
00000bc6
0000072c
00001704
ffff7f87
000094e2
ffff7dc6
ffffc091
0000325c
000025a4
0000399a
ffffdd6b
000009f1
ffff0b5c
00000e9d
fffff4e9
00003b5e
ffffc4ea
00001507
ffffd001
00002587
ffffbfc4
ffffb322
00009424
ffffa8a9
00002d2e
00000156
00000215
00001250
ffff2745
0000013a
00003cfe
ffffdafb
00002cd4
000004d4
00001f8b
ffff63f4
000044db
000040d4
000002ee
00001973
ffffc638
ffffcc5d
00003828
ffffd324
ffffe78e
00005136
00004e94
00002c41
ffff5df8
ffff495f
0000488e
ffff5fb9
ffff7d86
ffff902f
ffff8049
00006db0
00002f11
ffffcd30
00002acf
ffffabca
ffffc1a9
fffff2af
0000beb9
ffffe01c
00000ec5
ffff78b5
ffff7808
00002454
fffff9fe
ffffdfe9
ffffe7a1
00001980
00003f06
ffffff31
00000017
0000304c
00003c0e
00003c4e
ffffeef0
ffff72ad
ffff8d65
00001628
000031fd
ffffeaa6
0000075f
00000da5
00000916
0000131a
ffffceb1
0000445b
ffff9477
ffff84df
000035ec
ffff5ddb
0000249f
ffffdfdf
ffff3d45
ffffd7c5
ffffe74c
0000756b
000032d9
00003f2e
00000eaf
ffffed69
ffff2982
00004f71
00004592
00001f1c
ffffeac2
fffff938
0000345d
000014d3
fffff71c
00001e07
00006109
ffffcf17
ffffa95d
00001283
ffff4b01
fffff28e
00001b66
ffff3016
0000287d
ffffef3a
ffffbad8
00004e9a
ffffb311
ffffe626
fffff1f2
000027d3
000033c9
ffffc36c
ffff4b23
000024e6
00001322
0000267f
00002044
00004fcd
fffff4a4
ffffd74d
ffffb1f1
0000361b
00001f99
000045a7
fffff566
0000302d
ffffcf19
0000019c
00004400
00000001
ffff2fd5
ffff3f52
ffffe57b
00000517
ffff3e2d
00001100
00000737
fffff79b
000060b5
ffffee2a
000014a5
00003a8c
0000168d
00006188
000027e3
000048c3
00003b25
00002145
ffffee3e
00003363
00001f90
00000dfb
ffffb5c4
ffffc0e5
00003cf9
ffffe375
ffffeec9
000019c3
00001015
ffffe98e
fffffd01
0000861b
000015ed
ffffe99c
00002342
ffffcc2f
00002b58
00007794
fffff280
ffff6ef2
ffffe357
ffffddd0
ffff578b
ffffedaf
00004fab
fffffebe
00000eed
ffff7658
00001a45
ffffc555
00001b04
00001f62
0000472d
ffffe43c
00006e64
ffff9d95
00000bb3
fffffe6c
00006802
fffffd33
fffff3d2
fffff994
ffffe69f
00006397
000035b8
00000560
ffff3d1b
ffffdf1b
ffff7f23
00004f86
ffffa6e9
ffffcc0e
00002bc9
00000f89
00002587
0000025a
00000976
ffffc726
00002e5f
000015f1
000019e1
000006e6
00001ce1
fffff0fd
ffff8568
000024c1
00000d71
ffffd0ce
000028f3
00002628
ffffe7c2
00001c64
00005cca
ffff529e
00001f1c
00002409
00002051
fffff262
ffffabc5
00000e97
ffff4217
0000444f
ffffae54
ffffc8a2
ffffe85d
00000f43
0000149e
00000dac
ffffabbf
ffffd52e
ffffbf34
ffff7122
0000244b
ffffe56f
00001537
fffff0f8
000023d7
00001df3
ffffd6d6
000041fb
000016a0
ffffd988
00002866
000019f9
fffffc2d
00002967
00000c62
ffffc02f
ffffaefe
00009348
fffff9ce
00002741
000013a1
ffffec42
000033d5
000011df
ffffee54
000035ce
ffff43cb
00001306
ffff6150
00000844
ffffc109
00001ab4
000020b2
00002562
fffffbe5
000006e3
ffff6ff0
00001b13
000029f9
000024e2
ffffc375
00003ac7
000023dd
ffffd688
00009ab5
00005d5d
000017fa
ffffb4cd
0000274c
ffffb48d
ffff0f07
fffff518
00002627
000075d1
00001ac0
00003527
ffffbbd1
ffffed46
00000306
ffffd9ce
00003f33
ffffff2b
0000248b
000014fc
00002929
00001a4b
ffff9948
ffffdb65
ffff14a0
ffff2b9e
ffffbee0
ffffdead
fffff1b2
00005211
000041f3
00001f0f
ffffb55b
000011ee
ffffd651
0000067f
ffff519a
00001462
000094db
00000360
0000764f
ffff5952
00001be8
000020ec
0000814f
00002569
000071bc
00001865
ffffff48
000019b5
000011a1
ffffd9f5
00001879
000006ea
000029f0
00004776
ffff7f20
ffffdf73
00007cae
00001c8f
ffffe86a
ffffef5b
fffffaa3
ffff95ed
ffff03dd
00002d3d
ffffb642
ffff9e8b
ffffe6b1
0000275d
ffffb97f
00001ab0
00004748
ffffef1f
ffff7473
ffffb086
0000276e
ffffdb3a
00001102
fffff3ef
00006dc8
00003f16
fffed58f
00001ce9
ffffe320
000030bd
ffffd550
fffef948
00002154
fffffffb
0000444f
0000253a
ffff4ae9
00000c55
00000d0c
00000f36
fffff271
ffffb779
fffffb8f
ffff58bf
0000202a
ffff9e5d
000014e3
ffff6de7
00003ab2
000012d1
00003186
fffff16b
ffff6f4a
ffff6d2e
000021de
ffff8d1b
00002feb
ffff268a
00001d49
ffff8d5f
00003896
ffff3506
ffffff97
ffff2a6e
00006389
00001531
00003d85
00006227
fffff5fa
00005e96
fffef979
00002065
ffffaf5d
ffffee31
00000e14
00001818
ffff332c
ffff7f6e
00005858
fffffb55
ffffef48
ffffdb90
000035a5
fffff6d4
00002ebd
000015c9
ffff8a8c
00006143
ffffc83b
00000bff
000024ac
00003b70
000035b5
ffffe026
ffff8047
00000be0
fffffcc2
0000090e
ffff7bb0
00001b8a
00000888
000008ee
00005aa7
000011e4
0000093a
ffffe366
ffffff2e
ffff5144
000017c5
00001252
00005394
ffff3a4a
0000542d
00002e86
ffffa88e
0000530a
fffedeac
000018f3
00006446
0000049c
fffff1fc
ffffe186
00003a94
fffff753
ffffdb12
ffffdb79
00002bb2
0000155f
00003579
ffffffd3
ffff0e1c
00007a57
ffffffbd
00000c35
fffff407
00001fdb
fffff959
00003f16
000033b4
ffffd4c2
ffff4a43
00000f7c
00001b6a
ffffc28f
fffff744
0000386f
00005482
00008513
ffffcf25
000008ed
ffffe46a
ffffbf76
ffff8d0b
00003b90
0000bd83
000020d9
ffffd54f
ffff68f9
ffffbbe9
00005329
00001c15
fffffa02
00002034
00002277
00000ca9
ffffbb43
00001340
ffff8837
00000086
fffff22d
00000b17
00000cdb
00001edd
00008f96
ffffeb22
0000649d
000026bd
fffff4a2
00002742
ffff9208
ffffad7b
00000998
00000098
000038d9
ffffd91e
ffff90d8
00006139
00001fb6
ffffeaef
ffffe010
ffffd910
00000cb7
ffff6950
ffffe59c
00004074
ffffe411
ffffaded
0000225d
00003419
0000019a
ffffec9a
00004860
00003ca5
00000347
ffffec61
ffffd07f
ffffc068
00001d19
ffff4a1e
ffffa3cd
ffffdfde
fffffd81
ffffabb8
0000445b
000086ca
ffffbc06
ffff819f
000002e3
000046a1
00002bd5
ffff4279
0000204f
ffff6cf8
000009c7
000032a9
ffffd7e4
000080a4
000022ea
ffffd7a2
ffffcc92
fffec416
fffff525
000030ce
00002922
00002d49
0000a81e
ffffc888
00000b00
0000423f
ffff8c86
ffffd4af
00004bc6
ffffec25
000041e6
ffffce7b
ffffd29d
ffff2f21
ffffd838
ffffc9e5
00002b06
ffffb208
ffffddf7
ffffb72e
000023f1
000003cc
0000238c
00003a7d
ffffdf46
fffffef5
ffff2fd4
ffff9fee
00003a39
fffff90c
00001948
ffff3cc5
00003c9a
00004171
ffff94a8
000048c2
fffff793
00000f8c
00005d20
ffffbcb9
ffff1fbc
00002d8d
00003192
ffff9e65
00000f6c
ffff24a6
fffffc47
ffffdea9
00004035
0000634c
00002939
00004487
ffffd4d4
ffffa8ff
00004bce
ffff4101
ffffb60f
00004e7c
ffff65e6
0000173e
00003acd
000028c8
fffffd3e
00000dc3
00002990
ffff702e
00002e5e
fffff687
00000af0
00002d29
000025a6
ffff95e5
fffffcd6
ffff9841
ffffcb16
ffffa137
ffffbbde
ffffb283
ffff3516
fffffef1
ffffcbfc
ffff8cd0
000007d5
00002a7a
ffff80c0
00002697
0000214f
fffff11b
000027c5
ffff49d9
00003284
0000354f
ffffdea8
ffffcb81
000036ec
0000286b
00003a76
fffeff71
0000270d
ffffc447
ffff86e6
00000d97
00001f8e
ffff94b6
ffffe2e4
fffff756
0000c308
0000393b
ffffc285
00003e50
0000276d
0000124d
ffffeb39
ffff8b5d
ffff8c4d
ffffce14
ffffe1a5
0000556e
ffffcfa9
000032cb
00003732
000025ad
fffffe7a
00002e30
000052ce
ffff66ed
00005d97
000037b4
ffffdd3b
00000b05
00001286
00000920
ffff6668
00000e9c
ffffe3f3
00006361
ffffd279
0000407c
ffffc121
000035b3
ffffc9d3
ffff4b85
00002253
00001f2e
ffff7332
000058e0
0000491c
0000106a
00000a15
ffffd7e6
ffff749e
ffffd617
ffffe948
00001e12
00001f3e
0000632e
ffffd5d4
00002879
ffff87b3
00003324
ffff9b0f
ffff2a85
000011be
000006fe
ffffc9b1
ffff7254
ffffe7bf
00005a06
00001a9a
00006e5b
000088d1
000034dc
ffffd0c5
00001ed9
ffffdecd
ffffbcdc
ffffc78b
00000cc0
0000346b
fffee43d
ffffff24
ffffb679
00002a95
ffffa648
00000c92
ffffe7c4
ffff7e4e
ffff4576
0000100d
fffff183
000023f4
fffff22d
ffffd0eb
ffffd022
fffff466
00005ec4
00003481
ffffda7f
ffff6d1f
00003c6e
00000960
ffffeff5
000014f1
00000ec2
fffff19e
00002dd6
ffff7d65
00001da7
00000fca
ffffedec
ffff9d9a
ffff84a6
000000f8
ffffee67
ffffd8a0
00003afb
ffffc7ce
ffffdca7
ffffccb4
ffffc3f1
00001ffc
00005dad
ffff3728
00006f31
ffff9265
00002e9e
00006181
000012da
00000dfb
00001e63
ffffe3f6
00002792
00008630
ffffeec8
ffffffff
00001525
00002565
0000436d
000030c8
00000fb0
00001780
000028b7
000073a9
000020f1
00000715
ffff9664
00001abb
ffff99fb
00002e17
ffff1685
000006bb
ffffd89f
ffffb955
ffff3d09
fffff248
ffffa3f0
00001117
fffffd7a
ffffb260
0000006d
00000f26
00002eb2
000018f1
ffffc1e6
000030a7
00002514
ffffeb31
ffffc35e
000023bd
ffffd7c6
ffffffd8
00001b91
ffff8c55
ffff8a16
000041ca
000032c5
000003b5
000024de
ffffd227
00002be0
00001854
ffff7475
ffffad5e
00002bdf
00000eca
00001c8c
00002db1
00000235
0000361f
00003d94
00002974
000035c2
0000175f
00002d30
fffffcb6
ffff70f7
ffffb540
ffff4e1f
ffff6465
ffffae28
00001b10
000014a2
00001403
ffffc91b
00003931
ffffd5b4
00002e22
0000668e
ffffe47c
000025b3
ffffe56e
000013f3
0000241d
00000730
000029eb
00003246
00001d76
00001201
000040b7
00001916
00001c35
00003a57
00000cbe
ffffadfd
fffeb1f2
0000246e
ffffdfab
fffff2b7
fffff6b9
00000f4a
00001cac
fffff940
000003d5
00002974
00002be5
00005881
fffffd57
ffff16b5
ffffc56b
ffffe47b
00000cce
0000182c
ffffdda6
ffffc11a
ffffe79c
00003dc3
00001f7e
fffffd0c
ffffdffa
00002d5c
00000bc8
ffff52fd
ffff97d7
00001ad7
ffff549b
fffff9f5
000005a8
0000285a
00001676
fffff1c6
ffff6b40
00002131
ffff24bb
ffff65ba
000023f7
ffffabf2
0000414b
0000413b
ffffbb3b
00000916
fffffee5
000051d7
ffffe9c1
ffffe687
0000068f
ffffe50b
00000894
00003eee
ffff3351
000023fc
fffff11c
00008714
ffffec4f
ffff45f1
00000b32
00003462
00000e82
ffffc025
ffffbd33
fffeff65
00004135
ffffd1b3
00001aec
000029d4
fffffaf9
ffffe2f3
ffffc7c4
000037b5
000002bd
00000c90
00004a4c
ffff1b1b
fffec7fb
fffffe16
00001d1f
ffffe78a
ffff70b6
ffffd720
00001a85
ffffd55d
00001d5e
ffff04b0
000037a6
00001c85
ffffc9a9
ffff410e
00002630
ffffe984
00001dd6
000021df
fffff755
00002abf
000026c1
00001a93
00002a5c
000019e2
fffed525
00001899
00000617
0000253c
00001fc6
00004a77
ffff6465
ffffb096
000011c3
00002871
ffffdfd6
00002872
ffff8aa8
000037f4
00001aaf
ffffd71b
00002f9b
00002cd5
ffff4590
ffffebae
ffff248c
000020e8
ffffedd4
ffffed3f
00002e26
00004ab3
0000345a
ffffc9dd
ffff60d0
0000296e
000013d5
000021fe
000023f2
000012d2
00003456
000028cd
000003af
0000074f
00006bda
00004fa2
ffff9a83
ffff6d61
00002933
00002345
000022fe
00002ae9
ffffef48
fffffa64
ffffa2f0
ffffefa1
ffffae61
fffff640
00003e4a
ffff4300
ffffda78
00000be5
fffffded
00001b50
00004a04
0000395c
00001cb1
00000e1a
ffff42a7
fffffdbf
